0127 004c fff9 00dd 0199 fe7f 0018 006f 0050 ff68 
00cc ffd0 00d3 ff9a 014a 0005 002e fe98 0118 00af 
0042 0022 ff02 0050 012e ff46 ff7d 0103 00ae 0086 
00f7 00a0 006e 0011 01dc ffd6 0107 0103 0166 ff30 
fee5 015d 0026 fee7 0154 fda0 ffde 009c 0112 0046 
ffd8 006a ffe2 ff08 0002 fe02 ff3d 0064 016d ff53 
fee4 0199 006c ff86 0021 fd5b fff6 0056 fffb ff0b 
00e6 007d 00f6 0010 ffb8 ff9c ffd1 0146 0173 ff66 
0163 0103 fe40 ff8d 015f fdc2 0134 0139 00b9 008f 
ff88 ffd9 0099 ff0b 0182 ffff ff90 0044 003a 0191 
0138 ff9b fe7c ffe9 01c9 ffee ffcc 0053 ff0c 01b9 
0165 ffe1 ffc4 ff8e 0122 fe2f 0113 000e ff3b 00ad 
00dc fffa ffa4 ff9f 010a ffc7 fee4 ff86 ff2b ff59 
fef7 01ab fe4d 00a9 0054 fd5a 01ac 0137 015a ff96 
0069 021e ff14 ff4e 01d5 fe3c 00de ff71 00b1 ff15 
00fc 0146 fe35 ff90 014d ff55 001d ff56 0113 ff96 
014c 01a8 00a8 009b 0258 fe46 0044 0062 ffd4 ffdb 
fef2 0093 009c 0051 0079 ff1e 0009 00ca 0081 01bc 
000f 016e fffa ff39 00c5 ff45 0122 fffa ff83 006d 
ffd0 00aa 00a8 feb0 0060 fdf9 ff93 ff6c feed ffa0 
003e 00df 006f 00e6 0232 fe55 0039 00cf ff77 004e 
ff81 0121 009a feea ffd7 fede ff9b 00ea ffca 0169 
0151 ffad ffba ffab 0163 fea1 016b 0122 018e 005e 
0156 01ff 009a ff38 017d feac 00eb ff9b 00bd 0163 
ffff 019e fe38 0074 01c2 fde2 005b ffe7 ffff 000e 
ff0d 002c ff64 ffd8 009d fe92 006b ff70 016c 0078 
ffae ffbf 00e9 fe4a 0143 ff18 010a ff47 006c ff53 
00b9 0081 00f5 ffab ffbd ff9e ff22 0121 0046 ff9b 
0186 003e 00a6 ff25 0214 fe4a fedd 0048 0130 015b 
feee fff2 0097 005a 01b8 fdb6 ffa3 00b4 ff65 ff95 
00c1 00b6 feac fe2c 0071 fd8e 00a9 ff87 0098 01b0 
0142 0202 feb2 fe6b 0131 0003 00db ff18 0171 ff80 
ffd3 00e1 00d3 ffed 01ff feb0 0078 0012 003e 00d1 
fee4 01f2 fecf feec 01f7 ffb6 ff97 0129 ff92 0041 
00a3 0127 ff5a ff4f 00e4 fdf7 0155 005a 0185 0167 
ff5e 011e 00be 00ce 0091 ff91 ffa4 ff86 ff3e 0011 
006e 0031 feef ff2a ffec fee9 00a6 fea8 00bc 0158 
0019 0039 fe3b 004e 01ae fd8b 01c6 007f 007f ff3a 
0157 007f fe4e 0041 ffa6 fef4 0224 ff1f 0117 ff2d 
fffd 0012 fe53 fed3 ff55 fe95 012d fe84 ffd2 002f 
ffe2 003d 0053 ff66 fe5c fe7d 0211 ff2d 0096 011c 
ff15 019a ff2d 000c 0107 ff5d 0016 012f 0084 0146 
ff2f 0027 fe30 ff8b ffb1 fe44 01e6 013d fef8 ff9d 
ff3f 0235 fff1 00c7 00c2 ff5d ffcb 00ac 00eb 00ac 
0014 0052 00a6 00ca ff30 fe89 ffaf fe8f 0005 ff13 
ff6f 00b9 00a9 fe89 0067 ff87 ff89 009b 0170 ffcf 
fecd 0174 0047 fe61 fff0 feaa 0012 0037 013f 0143 
0146 00eb ffd1 fed9 0108 fef1 0144 feeb ffe3 ffa3 
007d 00ec fe8b fef9 00c6 fdb2 0188 0106 ffa0 0186 
00b3 ffb6 fff9 ffe6 012a ff5b 001c 00f2 0064 ff06 
00f3 0086 006e fe87 0096 ff5c 00f7 ff38 00e1 012a 
fff8 0218 00a6 ffa1 0044 000c 011d 0095 00ab 0056 
ff79 00fa 0053 0072 018e fe3f ff7c ff08 ff23 0055 
0135 00a2 0074 fe55 00ff fd7a 0057 fe9d 009d ff72 
0087 010e ff8b fed4 ffb4 ff71 00a8 00d8 ff3c 0029 
0109 0195 ff49 00d9 017e fdb1 ffd6 0080 0046 0126 
fecf 0146 ffa4 fe33 01f4 fe91 012a 00ab 0169 010b 
0019 0143 ffee fffd 01d6 ffd7 0173 ffe4 0059 002d 
ff77 000b ff18 ffb4 005e feab ff14 0115 0050 ffe3 
ff32 fff6 fed0 ffb4 00ab fe44 ff7c ff7e 0179 ffbd 
0160 fff4 ffa6 ff8b ffb3 ff60 fec5 feee ffac ff97 
00ea 0017 fe63 ff8c 01b6 ff22 00c0 fef9 0088 ff89 
0180 ffab 00ac 008d 011b fddd 0146 ff52 00cf ffed 
ffb4 0160 ffdc fef3 ff35 fd5d fff4 fff8 ffd6 006a 
ffeb 0166 fef4 ff6c ff56 fee4 0094 ff99 ff04 01a9 
0045 000c fea5 ff0b 008a fd62 018e fed1 003b 00d9 
00fc 00d8 0040 fe3b fe8c fe98 0218 ffbe ffe6 ffa0 
0030 ff8c 008d fea1 fdf5 fe60 01f9 ffeb ffb7 fee2 
ffe4 019a 0080 feb6 fc3c fe51 0353 fed9 ff66 0021 
fe9d 01a3 ffc9 fe72 fc81 ff31 0352 0061 008b ff3c 
fe82 0181 fee0 feb7 fc51 fd2c 0300 ffef 013e fff1 
feee 0232 018d 0048 fd0a fe23 0386 fef2 012a ff6a 
fd88 010a 017c ff0d fe7b fe02 03d7 ffca ffa3 00db 
fe50 febe 0007 fe37 ff8a fd19 041e ff8a ffe4 00a7 
fdec 0028 ff7e fded 0150 fe76 020f 0083 0139 000f 
ffd3 ff41 fe7d ff17 ff41 ff46 0441 ffd0 00f7 ff7e 
00b6 0125 ff0a fe60 ffdd ff25 0193 00c1 ffa7 0034 
00bc 01b5 ffb8 fed7 01db ff77 025c 00c5 ffbc ff39 
fee3 0220 ffbd fe5b 00ca fecc 0137 0000 0131 001b 
fef3 012a ff0d 0006 01be fe22 01fe ffec 008d 008c 
ff04 01aa ff30 ff68 01a3 febe 00bf 0107 0187 ff2c 
000e 012d 0058 ff81 022d fdf6 00e6 ff89 00e6 fffc 
0023 007f ffd7 fed9 012b ffaa 017e 00c6 0192 014c 
009c 01b0 ff9c ff7c ffa0 fede 0042 fefc 00c3 0158 
013a 01c6 ffff ffaf 018b ff08 0157 ffed 0137 00be 
fff4 0055 ff6b feee fff6 fe9d fef9 006c 0075 00ee 
000e 01e5 0012 00e4 00b5 fff3 ff5d 0149 00eb ff99 
ff1c 0009 0085 fefa 0025 fe15 ff46 fe95 0029 0151 
ff34 006b 0000 008f 0145 fe9b 013f 00f2 00da ff2c 
feee 0120 fffd feb8 01e7 fefd 0002 ff42 0057 0132 
fec6 0081 ff1e 00ec 0120 ffca 013b ffbb ff5d 00cb 
ff73 0010 ffbf 00aa ff4c fd47 01bd ffa9 ff48 01ae 
003e 014d 0002 00d6 fd15 fd90 02f9 ff6a 000e 016b 
ffd0 fe83 032f 0180 fd77 fd42 01d4 0032 ff1f ff1b 
fe80 fdf2 03b6 018d fd2d fbca 037a ff00 ffcc 00b9 
ff17 fd5a 06a3 02ac fb66 fa5c 0226 fff9 ffcb 00fb 
fd62 ff7b 0469 058a f84e fc8a 03ac fea7 fd07 002c 
fd12 ff4d 04d9 04cf f799 fd78 0498 fec1 fe3a ff7b 
0008 ff50 0201 0398 f94f fc55 0425 0022 fe5b fd56 
ff74 fea1 00d1 0232 f8ca fc4b 0386 ff40 fcee ff7a 
ff6e fda3 ff61 0239 fa1c fc42 02b3 fef7 fe00 fe12 
fcf4 fca2 fe9f 02f8 fcb4 fbf5 02be fded fcb0 fd93 
fde5 fced fda6 0008 fec2 fd19 05ee ff85 fe4c ffe3 
fdaa fd7c febe 006c 000f fd2a 0392 0049 ffb5 0007 
fde6 fe2f fcb4 ff95 0211 fd89 048f ffd2 feee ff08 
fcf1 ff36 fd4c fede 02ae fdce 0792 fe4e ffe0 008e 
fee5 01f8 fdcc fe7a 0026 fdd6 0357 ff8c 0010 0047 
fe8a 01b8 0014 fe44 0125 fd09 0324 fe84 008e 00f9 
fee6 0170 001f 00b2 ffdc fe4e 0270 ff52 ffbe 0050 
ff3f 007c feab fe29 00c4 fe7e ff27 fffb ff0a 0098 
00a3 0098 0079 ff23 01e0 feac 009c 0144 fef7 009c 
0134 0207 fefb 00bc ffc6 0010 007b ff80 ffb4 019d 
00f3 024a fe91 fe5f 0057 fe59 ffae 0093 006b 0138 
0133 0141 004b 00e9 00e5 000b 0058 fefa ff5b ffb8 
ff49 0162 002c ff62 ffa7 fea9 ff6c 000f ffeb ffd3 
00bc 011b ffed ff66 ff97 ff22 0111 0149 ff0d 00b7 
0129 0154 ffd9 007f 021e fd84 00e1 ffe3 fefe 001e 
fece 0233 ffe3 0180 015c fe33 0118 febd 0010 0147 
fec4 00b0 0129 017c 00c5 fcbd ffcf fe48 ff47 0121 
ff18 0087 0085 02b2 fe14 fd81 0063 ff5b fff9 0142 
012d fdfa 0369 057d fe30 faf0 ffb3 fe0a fea4 fedc 
0080 fdcd 0787 0446 fd18 fa89 01c2 fec7 ff97 fe51 
004d fe25 06e5 06b4 f979 f90e 01fb fcf4 fe06 ff64 
0027 0033 07a2 0658 fa4f fa5f 0026 fcdc 00df fd21 
fe72 0131 059e 05f1 f74d fa6c fee9 fb5e 00b0 fd09 
fdf1 ffd6 0558 07d3 f8f5 f915 0053 fa45 0153 fa93 
fe80 01ba 0213 05a8 f8ca fbf5 ffa4 fb23 02a0 f942 
fd6c 0113 0087 041e fa7e fd5c fdfa fa27 01bb f77d 
fe68 fe32 008c 002b fb07 ffd5 00c1 fa97 0153 f7a4 
fe98 fd2c 01cb fff4 fc86 0001 02df fb43 ff32 f90d 
fda6 fe56 00e7 0109 fcf5 00a1 0408 fbfa ff6e fc85 
fe97 0094 fd8f fdd0 00d9 fe23 063c fd2d fd95 fbbf 
ff63 023e fbb8 fb72 024f fe7e 0518 fdf2 fe9e ff6e 
005f 0194 faf5 fa3b 00bf 01a0 04aa ffd6 fd0f ff11 
feb9 0386 fb59 fa48 0262 027b 05f4 fe6a fc14 ff79 
004d 02b4 fdc5 fc3a 015d 004a 0269 001f fd11 0128 
ff0b 0007 fef8 0000 00db fe4d 01af febb ff7f ff3d 
ff22 ff72 fe61 ff5f fff0 feeb ff5f fffa 015d ff00 
0098 0070 ff1b fe3f 0002 ff97 ff1c 000a ff6f ffac 
0183 01a8 00d6 0004 ffce ff1f 015d 00ef 00e4 0141 
0080 01e3 ff83 ff19 ffe5 ffb0 015a fee8 ffe2 0176 
fff8 0061 008e 0000 01c3 fed9 00ad ff6e ff9c 00ee 
000a 022a fee3 ffb9 0106 ff4f 0170 ff26 ffeb ff4a 
fffb 009d ffcb 0168 0207 ffa5 00cb ffbf 00ba ffcc 
0078 0010 0026 0301 02aa fd6c ff48 fee3 00b0 0140 
0101 ff88 00da 04df 02ce faa1 fedf 00be ffe7 0107 
00c4 0000 023d 03b5 01e1 fbe1 fea6 fe86 fe68 006f 
0150 fd50 0217 04fa ffbb fb2d feb6 ff30 febb ff93 
0081 fb1c 04a8 0367 fece fdcb 006f fd6c fe8a fc09 
fd63 f9e7 0620 04e3 fecc feb8 ff64 fcdc ff90 fb1f 
fe77 fcb8 06dd 039d fbf8 0087 0054 f967 fcd4 fb82 
fed4 00dc 051b 0285 fd08 fde1 facd f7e3 0245 fa29 
00d0 01e8 05e1 0242 f9c9 fc7a fcaf f6eb 036c f6ca 
0368 0096 0649 02f8 f97f fdd4 fcb8 f3c9 03be f724 
01b6 00fe 0565 fff7 fc49 fbe6 fb52 f497 01e5 f4a1 
0276 009b 069d 01bb fe26 fd57 fc56 f3c8 00e1 f23c 
03ff fd32 060c 025c ff63 fe9a fd9e f4c5 00cb f415 
0522 fd1c 05c0 feb0 ff1b 0006 007b f4ea 0429 f50e 
04aa fdbb 0321 ff11 0053 02d5 0231 f736 0074 f7cf 
0205 ffc6 ff53 fe5d 0054 013c 03ab f6b9 ffb0 faac 
013b 00f5 fc09 fc77 01bd 02d7 03e8 fad6 005f fc2e 
0066 05c9 fd70 f842 0250 01ce 0267 fdcc fe3b f9ba 
0014 05ec fafe f7f3 048f 045f 0217 fccd fd98 fbf6 
fdf8 0324 faa1 f899 0641 064e 00b0 fe10 fcd4 fef7 
fe70 019c fd5b fecb 0387 041a fe94 ffab fce1 fe32 
fddd 0089 009d fe4e 0073 00ee fe42 0097 020a 00f8 
fed4 019c ff9a 00d5 005a ff4a ff07 0114 0049 ff53 
fef9 0070 ff84 fec3 ffd1 0005 0016 ff9e 0197 0124 
00f6 0023 00a8 fea3 ff9b ffff 0144 00ad 00e0 fffb 
0151 ffdf fe50 00ea 018f fef5 ff28 012c 00da ffaf 
00de 0232 00b3 fe6e 0052 ff19 ff80 ffb2 ffd8 011d 
ffa0 015a 0009 0229 0128 fc46 ff50 00d7 0060 ff7e 
feb1 ffb8 fe09 04e4 0289 fc9c feaa ff2a 0080 fe34 
ff18 0022 0011 05d8 0252 fadf fd53 0069 feab fd24 
febe fd77 023a 0634 01d3 fa90 fe1b 025a fe4a fd15 
feee fe04 045d 0263 009d fd4b fd48 02a9 fc4c fa1c 
fcd3 f964 030a 042d fe31 fd48 fdce 0467 fe87 f8e8 
fe91 f772 024f 0350 ff32 00cf feaf 021d ff4e f8bc 
feb5 f8da 0436 02b6 fc55 0120 fc24 00fb fdbb f9bb 
fef2 fd81 018e 01f7 fa1e 018c fb36 fe60 003c fccb 
0047 fdd7 02c9 02a5 f814 ff80 fbc7 fca9 0051 feef 
00e9 fecd 0441 04b7 f50e 001f fa51 f785 ff11 00d1 
0185 fd47 02f4 025e f407 fe3d faf3 f8a4 ffdb 03e6 
03de fa04 037d 01c9 f6a7 fce1 fc1e fc48 01b4 0373 
040b f8d6 017a 0114 f8f7 fdfe fa90 fd0f 0012 0281 
0477 fb18 ff8f 0230 f988 fdb8 fd64 fbb6 0087 026a 
027c fce7 ff1a 01f0 f998 0155 fdb0 fc59 ff40 01b9 
044c fe24 ff29 fe58 fbcd 0333 ff0b fc14 0129 fdda 
02af ffc0 fd99 0178 fd94 028d fda8 fb45 0115 fd49 
04c7 01e8 fd1b fc7a 0266 01cc fc2b fd25 0193 f9ea 
0427 017a fbb9 f8bb 05fb 04bb fbaf fb14 01ad f6c2 
0013 00a2 fa49 fa82 07d5 0838 fbad fca6 01ea f9b4 
fdf2 fed5 fc72 fbdd 044c 0912 fd7e fe6b 02b7 fbca 
fbcf fe69 fe40 fdd4 ffea 05d2 fe3a fed2 0110 0023 
fdff 0134 fe9c fe9c 016f 0062 ff8e 001a ffe1 006f 
00d3 0132 0014 0057 0130 ff49 ffb3 00da 019e ffa6 
0065 00bf 00e5 0041 0251 ff07 fefd fee4 ffa3 ffda 
0016 0043 ffa2 0094 009b fd59 0071 0066 00e1 0003 
011d 0093 fec1 ff2a 017c fde2 ffbc 00ff 0191 0195 
ffd1 0180 005b 0197 020b fc84 0019 0090 00cf 0034 
fe73 0178 fe48 0702 0170 f7a2 0009 0217 fee0 fc1f 
ff66 fd8f 0085 04eb 0109 f86e fea3 0531 ff90 fa96 
005a fc78 0186 05b9 ffd5 fa14 fe50 0799 fc15 f999 
fdf6 fa92 0137 00ad ff1a fdbe ff5d 069d ff0e f5c6 
fc8a f647 03b2 00de ff9b 0106 fdf6 05fd 011c f970 
fc7c f484 0169 0196 fdf6 023a faf6 03cf fec9 fb28 
fe35 f891 032c 01c3 fc91 038b fac9 0369 fdb6 ff47 
0102 fca5 0199 023c f818 02a4 fb93 0254 fd8b 005e 
020c fda4 005e 037b f623 fea4 fae2 02c2 fd47 0387 
01f9 fe4f 0166 03c3 f81d fe17 faac fea3 fd55 0472 
0244 fad6 01d7 03e7 f4c5 feb4 fc53 fdbf fc5c 084c 
0219 f983 0089 02f6 f558 fe5d fc9d ffea ff55 09c9 
017c f8ed fff5 0050 f67d ff6b f848 01b4 fec4 068b 
046f f95d fb4a 031c f8dc 0007 f91d 0313 ffd8 03c1 
0422 fb65 fdc8 00b7 fa0f 0084 f933 02cf ff32 01c1 
0402 febc 005e 0217 fad3 03c7 f734 00a7 ffc8 fef4 
01d8 00da fede 0207 fa70 0298 f623 fef8 00c5 0014 
00db ff14 fe19 feae fdea 0477 f615 fe9c 0145 ff02 
01a9 fe7c fd70 fb33 027a 06ca f615 fdd2 00e4 f809 
0157 fc52 f9a5 f8bb 04f1 0818 f83a fbbd 04c7 f9cd 
fe4a fda6 fcf2 f985 01ea 0cd7 fdc9 fdc8 02a9 f9a2 
fd3a fd5e ffa6 fe88 006f 09d1 fedb ff2c ff4b fe5b 
fdbc 0066 fe77 feb3 0127 0344 fe9b fe47 0054 ff0e 
0151 006c ff80 fec0 00f8 0052 015f fe83 0071 008d 
0170 0210 ff94 ff9a 0012 fe27 ff86 012e 0078 001e 
ff30 0187 005f fe49 0172 fe17 011e 0021 00ef 019d 
00f4 00c7 0008 ffad 00b2 fe35 012c 008c 0011 fe8a 
ff02 01b1 0052 019d ff78 fc84 0076 01e5 ff52 ff53 
fd8c 0095 0050 05ef 020c f8f5 fe2a 052e 0037 fb93 
fe91 fee1 0069 068a 016b f8aa fc0b 054a 0166 f928 
ffd7 fca5 0247 055b ff35 fa13 fbcd 06d3 ff9d fb48 
fe74 f9f2 028c 0185 fe1f fd61 fd60 0731 ffc5 f8c7 
fe9f f785 01c9 011f fcda 032b fee4 057c 0154 fb5c 
ff56 f5f5 02b6 fe21 fd8c 01bc fc56 02d1 0198 fd32 
ff60 f726 0189 0086 fe6e 02b4 fc47 0498 0089 fea6 
0057 fbcb 0257 fda7 fa23 02e1 fa17 051d fdfc ff89 
0157 fdf3 018a fd99 f850 0080 f9ec 04af 00ff ffc4 
feea fed7 00cb 00da fae7 fd9d f995 0150 00d4 0314 
0135 fe0c 043d 0525 f500 fa8c f971 018c fdb2 05e3 
024d ffc6 01c3 04a0 f4fc fbf1 fa1d 0109 fc56 05b2 
0636 fc75 ff76 0178 f897 fc25 f70b 042c 0100 035a 
05c4 fd00 fea8 021e f9e0 ffd7 f5ca 050d fe14 007f 
04c2 fd28 fefd 038e fbc3 ffe5 f274 05cc 00ed ff76 
030c fcf6 002c 0461 fd84 020a f339 020e 01b4 fdb3 
01c0 fbc5 fe41 036e fde3 045a f538 020f 00fa fc64 
0190 faf1 fde8 0259 fb97 05e4 f53b ff93 0358 fd74 
0117 f9b3 fc77 fc17 010d 0764 f521 ff26 0223 fbb9 
0453 fa8b faf1 f708 02ef 0bfb f6d0 fd64 02f1 f85b 
ffe1 fb5a fb3d f971 ff6e 101f f9a7 fd92 0243 fa4c 
fc13 fe8d fe5e fdf7 ff60 0ecc fcc9 fe02 ff1d fcbd 
003b 0038 ffbe fef7 ff7a 038a fde0 ff6f fffc fe9b 
feff 008d ff36 fff8 ff60 00ac fe8a ff04 01c4 019a 
fffb 00e0 ff93 ff35 0146 fe10 0182 0031 0026 ff4b 
00f7 0150 ffe0 ff87 009d ff4d ffd9 0076 012d 0138 
014f 0107 fe52 ff6f 01d5 feef fec4 ff57 ff96 fef8 
ff7c 00f9 00ac 01e3 0032 fc59 fe17 0235 00da fe5a 
ffdd 0052 0156 059b 0064 fad8 fd9e 0503 ffa2 fbb6 
fe2f fe9f 02df 03c8 ff7e f939 fde9 051e ffa1 faf0 
fe8f fd50 00d2 02fd fe4c fdbc fd39 017d 00f1 fdcf 
fd78 fb92 ff20 ff50 fe36 ff0f ffe8 03cd 005b fd6c 
ff85 fa20 fdfd fc56 fcbc 012a ff10 017c 02ca fdc4 
feb4 f6ca fde7 fa7e fe0c 0166 feaf 00a8 0291 fdbc 
0048 f747 ff64 f802 fe8d 02bb fc69 0417 0355 fecf 
fd8b fa15 fe81 f3a3 fd0d 04bf fdd6 03c3 0370 ffc0 
ff03 fd08 fc5d f518 feca 01df fd01 059b 02cd fe3e 
0070 ff68 ff13 fd99 f918 fdef fbb4 0377 001e 0282 
ffd6 03de fff0 05bc f23c f92a fb6a 06a3 fb55 04a5 
01aa 062b 021a 08c0 f49d f856 f84e 06d8 f871 0369 
045b 0234 0081 0667 fc88 f8db f56e 0772 fb94 fe4d 
0512 fe9c ffbc 036c fc72 f998 f3e5 0692 fe50 fcb5 
05c4 fd72 ff8f 037f fd7e fc3a f289 0673 ffc4 fe4d 
048f fb74 0009 01b3 ffd0 fea1 f4c2 04a2 0104 fd98 
01c6 f8a9 ffc0 02ea fd01 023b f5c0 0415 010c fdf0 
ff9f f83d ff99 01ef fb94 072b f7fd 02f8 009a fc92 
01bf f6c4 fcf5 fcfd fe19 08c6 f7c6 0124 00f6 fd49 
036a f7aa f94a f84c fcfb 0baa fa65 fcea 0294 fac6 
0273 fa4f fab8 fb46 fbb3 13e4 f9bf fd11 0038 fac0 
fb71 ff9f fd99 ff0f fe69 0fbb fc81 fd82 0009 fea0 
ff04 00f6 fe64 fe79 00f8 02a7 fec0 fecb 01aa 0003 
ff9d 00b2 ff9a fff4 0179 ffa8 ff28 0088 0075 003b 
ff68 01da ffd9 ffb0 0153 fd54 00fc ff98 0167 0050 
ff5f 01f8 0006 00ac 006b ff89 ff8a ff78 ff22 ff07 
ff7a 00e3 ff81 0151 00eb fdc4 ff39 00c1 ff5c 014d 
ffee 00fa ff3f 0182 ff6d fdda 001c 03d8 ff9e fd7f 
ffff 00a9 fe37 0242 002e fc27 fd23 037c 01be fc38 
fec9 fe68 fdc9 0142 fcf1 fcd3 fe63 029f 00e9 fe98 
fd62 fbda fe66 fe2c fbf7 009d 00aa ffc0 0415 00b1 
ff44 fe25 f8df fac0 fd27 015a 0120 0100 066a ffdb 
00ec fcc6 f80c f5f7 fe03 047f 0103 fef7 02e4 0330 
ff2a fbe5 f918 f166 ffd3 047c fda7 0026 032a 03c6 
fe21 fd9d f7a8 efb8 0075 05d8 fd48 ff97 03f8 029d 
ffe7 fcf3 f717 f011 0115 0624 fe6b 02d0 037e 043b 
00f0 fcb2 f65a f392 01d9 05af fd4f 0082 0263 0126 
fd7b 023e f3ec fc96 fa39 02f9 fd17 0539 ff65 fd51 
fce2 0857 f7e0 04b9 f083 fdca faa7 0570 fe6e fce6 
fd3a 09dc fdd4 06d1 f8bd f9a6 f86f 093a f829 fb66 
fcf6 04e3 ffbe 0354 0111 f698 f649 0984 f86d fbe2 
009e fda9 fdac 0522 001a f70b f675 05fc fdfa 00bb 
0537 fb2b ff13 0396 ffa3 f70d f5af 0415 ff72 00d2 
058c f9be ff41 04f8 0071 f512 f8e1 0413 0186 fe95 
03c9 f8b1 fe0a 051f fb00 f6ed fb21 061b fffc 014a 
01d7 f85a fdf8 0131 fbc6 fab5 fd21 024f 04c6 fdc8 
0497 f9e9 fcb4 fda4 fd46 fe83 fc31 0022 05ac fd59 
074d f9ee fa70 f98a fc34 03b1 fd27 fefb 0609 fdff 
050f fdad ff17 fccb fb67 0804 fbfd fd2c 00c1 fc25 
fd2b 0108 ffcf ff9e fead 0869 fdb0 fe1d 010d fe9b 
0045 00a6 ffd1 00b5 ff21 007b fecc 00b8 0175 ff3c 
ff90 0199 007f fe59 015d fd7f ff27 0082 ff8f 0090 
00cf 0105 00ad ffff 01c6 ff9a 00ba 0038 0179 00b7 
ff12 01da 009d fe86 015c ff6c 0164 ffbc ff0b ff60 
0180 0232 fe4e 0030 009a ffce ff7b ff7e fefa ff27 
00ea 0195 ff86 000b 002a fcb6 00a5 0418 ffa3 fd43 
febb 01d0 fe18 0054 003b fd7f ffb3 0536 003e fe6a 
fef1 fea3 f99b fbc8 fe31 0078 ff64 010f 03d6 0487 
01c3 ff8a f609 f848 fe0e 01d9 ff83 00c7 0298 042a 
0120 fcea efdc f45a ffb7 046c 02dc 008e 0763 0572 
0282 fd06 f05e f284 01b6 03e9 004b fdba 0519 04e9 
ffd3 fc2e ee8e f3e0 036a 0283 0098 01ea 063f 02a6 
fdbf fbf3 ee6e f6d6 04d9 0438 fff2 011a 0591 017c 
ff64 f83d ef7c fb24 04a7 03c6 005a 01bb 01c6 035f 
ff1b fb4f ee6e fb07 0486 067f ffa0 fe63 02e0 fbe4 
fc5f 03c0 ecbb 0029 f6db 05ab fff8 012d 047f fbb6 
f6e2 09cc ef2e 02ba f1d1 ff25 fb99 00ef 05e8 fd48 
f4ac 0a5f f7d7 01b0 fe49 f835 f868 0651 fbfb fd4d 
f4f0 05f2 fb63 0309 04fe f987 fa13 070e fb80 010c 
f908 fc45 fc06 045e 01d1 f6b7 f9e2 05ab fd28 03ea 
ffd8 fd03 fe5a 03c3 fef0 f62e fb25 05a8 fd31 03d6 
0172 fb1a 0045 02f6 fcaa f038 fb89 0357 ffbc 02b8 
0488 fb16 fe15 01a1 fb08 eca6 fc5a 0406 02f3 05b0 
0391 fc49 febb fdf3 fe7e e947 000d 006f 058e 0447 
062a fc06 faca fcea fd09 ecaa 0110 0105 06c8 00f1 
06e0 fd72 fa38 fc8c fbaf f2e0 0491 fd2f 0738 feac 
04c0 fe7d fe38 fd84 fd67 f8cd 0269 fc1a 081d fc51 
00bb 011c ffe9 ff7e fdea 0203 ff98 fe51 02c6 0018 
0147 00f7 ff28 ff6d 00c9 ff3c fdac 00ef 01e1 ffda 
001e 01c5 ff35 ffe9 007b ffbc ffc6 ff4d 00cb ffd1 
001a 0143 ffc8 fe7d 012b feb2 ff3b ffeb 0107 01a6 
fff8 ffbc 00af ff50 01b4 fedf ff9a ff75 ff9a 0196 
ff8a 002a ffa4 ff16 ff55 feb3 ffd2 00f9 011a ff75 
00a5 0022 fe09 fedf 0006 fd91 0131 03bd 0185 fec9 
fdee 00a5 fba6 fe83 fefd ff58 feee 0466 fef5 0107 
ffb9 ffa0 f640 fac4 00f7 01a2 feff 00ea 01ea 066d 
02ea ffbd ed9c f564 ff9c 0225 02d6 ff19 02b3 059d 
024f 000f eb78 f32e 048e 02a6 0319 0098 02d5 035e 
006d fe74 ea90 f84c 050e 0133 febd fe66 03ed 04c9 
fd53 fcec ec09 fa48 05a3 ff58 00ba fd1c 03b0 0554 
ffb5 f7d8 ef28 fcb2 07fc 03d1 00ed fd88 ff4a 011c 
fee0 f503 f0da fde7 0c0b 072b 01b1 f868 ffdb ffdf 
01f7 fe53 f0cd fedc 09e0 0803 ff95 f4fa 0203 fa7c 
fb41 0492 ee89 00ad fea1 04c1 fe7a f069 0972 010f 
f25d 0b00 f02f 03df f93b fed0 fd2c f30a 08df 06fa 
efeb 0a09 f760 0319 021e fa9b fad1 fe0d 00e8 041e 
f040 01f2 f9ce 029f 0652 f5f9 fd38 04f0 ff12 0573 
f66b fe75 f9b1 0347 0147 f866 fce0 03bb feeb 05d2 
fccd fec2 fcd5 00dd ff84 f89f fae8 0199 fdf6 07c1 
ff12 fad1 0076 fd78 fd04 f6a0 fb1b ffa0 00b3 0954 
ff2b fd1d ff24 faab fdaa f5d9 ffb8 00fa 020d 08f4 
00a8 fe37 fcd2 fa6c 00b3 eedf 025c fe83 042b 061b 
0557 ff26 fb1a fa5b ff8c ed11 042e fe8d 0789 015f 
073e ff5e fa8c fc0f fc7c eea5 09b3 fc05 0824 ff47 
071c 0130 fedd fd71 fc33 f529 0479 fe43 0527 ff47 
0077 024c fee4 0027 0022 feee ff70 0074 028b 0043 
0102 00ca 0030 ff4b 00dd fea8 ff78 00b5 0058 001f 
007a 016c 000a ff8b 0253 fed6 ffca fed8 fefb ff05 
ffc3 ffc0 00f7 0026 0157 ff55 fed0 006e fef0 ff4d 
ffa0 ffa9 ffb6 00db 019a ffad ff71 0000 ffa9 ff8a 
ffbd ffd5 ff6b ffe8 008f fe6b 0174 0165 0096 fed5 
ff5b 015e ff52 ffdd ffb1 fd8f 0080 019a 018a ff08 
ff46 00c9 fb39 fe78 00e4 00ab febf 0104 fef9 02b4 
0293 0071 f4cb fc5a 034f ff70 ff53 005b fe2f 045a 
021f 006b ee7d f7d2 05cc 0161 0324 fdc1 fc01 042d 
01b7 fe35 f052 f7ba 057f ff45 018f fed9 fdb3 023a 
ff35 fc47 f072 fb1e 06db ff33 fff3 fed2 fc22 0324 
ff49 f9de f556 fdae 0835 00a1 0168 fae2 fdb0 02b8 
00c2 f422 f6c4 fd23 0a2c 0555 024b f6f2 fc2c 0015 
00f1 f2e8 fa6d fd8c 0db7 06cf 0133 f26f ff95 fe57 
fd29 fb3a f939 0022 0a2f 0458 02f1 eb55 021b fbdd 
f7d2 0399 f88e 028f ff08 012a fda7 e665 07ab 03bd 
f296 09cd f885 0388 fcca fd0e fb7e f24a 036a 077a 
f04d 06c7 f895 01a9 038b f811 fe40 fcf3 022c 0411 
f1a5 ff70 fa1f 0198 042d f7e4 fe00 0261 00eb 0574 
f96e fee4 faca 00f6 0239 f967 ff1f 0140 fd6d 0653 
fc9e fb28 fd63 ff9a 01cd fce4 fbc2 ff2f fe5d 05ff 
fa42 fbb2 fe68 fbdc ffdc fe51 fed3 00ac fd0c 07f1 
fc4c fb93 fd0c f8c2 0079 fd2a fe8d fe35 006e 0687 
00ea fd23 fe30 f8a9 01a0 f93a 01ba fc7a fed2 0408 
0467 fd1a fc78 f873 01e9 f5fa 04b3 fe92 ff2f fd6f 
0646 fe88 fb33 fd3d fd6c f1e4 094a fea9 0053 fa76 
06e5 0049 fda2 fe74 fecc f62e 06f1 fd3c 00b1 fd34 
fe8d ffd7 0132 ff98 006c fdf3 fff2 fff6 0164 feac 
0015 0090 0151 0024 0188 fe97 0032 ff31 01ad fff2 
0141 0253 ff4a fe62 ffd9 fe97 0129 0066 00b6 0081 
ffe7 ffa6 fec9 ffa9 0244 fe14 fef5 003c fee1 00ba 
0078 00be 0099 005d 0209 0006 0156 ffb8 ff48 0174 
ff95 fffb ff80 0104 019a ff14 ff50 0023 00e9 0092 
000e 0025 006f 00c0 02cd fd62 004c 01cb 00da 0045 
ff73 0215 fe51 0022 0508 ff29 fd07 0118 fea3 02ec 
0239 ff43 f7be fc0e 0698 fd00 0005 feb9 fad1 029d 
019f fe3c f6ab f99f 07ba feb0 00ce fccf f6a7 032b 
03b6 ff4e f93a f976 08e5 fea9 00f8 fce9 f7dc 00f0 
00c3 fb4f fc2a fbfb 0881 fff5 0119 fc54 f749 0062 
0219 f8b8 fe06 fd2a 0677 0320 02a1 f7fe fb9b 0130 
041d f381 ffcb fb7b 076b 054c 03cc f4fa fdab fec8 
012e f782 0092 fc21 08b4 0035 059d f094 0160 feab 
fec1 ffa2 00cf 00d5 05c3 00ca 00cd eb39 018a fd6c 
f8cb 03d9 007e ffca 0194 ff42 fb0c f02f 05c7 00be 
f0d6 0796 ff07 01df fe01 fbb3 ff89 f9fa 05c6 001c 
ef58 05fa fcb8 fdb8 0183 fa00 0175 fed7 02b3 0305 
f37e 012b fd82 fdb3 065f f92f ffac 0052 fe22 0609 
f8fb f99c fc2a ff2e 07f8 fac9 fd43 008d 0042 04e3 
fdcc f7ce fe29 fe05 03a4 fb85 fd06 0443 fc9d 035d 
fca2 fa72 fca6 fef3 0452 fcc8 fe19 05ae fcea 00c3 
fee4 fd27 fe6b fb74 02ec ff33 027e 026b fa83 0077 
01b3 fe41 fc79 fba4 0061 fcab 0350 0278 fad3 fd76 
0287 ff10 fbde fb72 0071 fbb7 0614 032d fb51 f990 
054d febd fb88 fcfe 0056 fa51 06af fffa fabe f893 
0477 001e fdf3 fe18 0157 f994 066d 001f fda3 fcc1 
ff73 0199 02a9 ffac 024d fd0f ff2a 002d ff40 fefe 
00f7 00d8 0107 ff8f 00d7 fe3e 0019 ff79 ffa6 0168 
003d 00c7 009d ff21 00a0 fe6b 00c7 ffc6 0192 01a0 
ff6b 00bd fecf fe7e 0057 ff89 fee4 feeb 002c 00d2 
00a1 019a 00b8 ff8c 0213 fee5 016c ffc9 009e 00cb 
0057 01ba fe0d 0020 0147 fdc8 ffdd 014b ff19 0045 
fe80 0224 01dc ffe3 0051 fe65 ff12 00b4 00be fd3e 
ffdb 00ea 001c fe09 02e3 ff08 fb34 01c5 fe29 0133 
0370 0002 fe83 fb3c 02cf fc37 fe10 fd10 fc0c 00c0 
02ec fe33 00a3 fb2d 0719 f869 0298 fcf0 f6d8 004a 
021d fe4d 00a5 f80e 0474 fb91 0287 fbc6 f5a8 001a 
02d9 fc60 021d f9c3 04df fe6a 00a8 f892 f97b ffd1 
0328 f742 01d4 fb14 03a9 015b 028e f708 fa7c fcd1 
0416 f653 01ff fa45 02f3 00a4 06ae f3af fd7c feb7 
00d2 fb8c 00b1 fca7 0223 0227 05ce f13c fe2d feed 
fad2 01c9 0122 fff8 0272 0161 0016 f1c1 043d 0027 
f3db 06d1 024f 03d8 012c fb6d fec4 f56b 051e fc92 
ee7b 09aa ff01 0196 0098 f930 00d3 f930 0313 fe15 
ef61 042b fdb1 fc61 0485 f79b 0132 fd7a 0136 04ae 
f5e4 ff4a ffe2 fb08 072a fa90 001d fd7d fcfb 056a 
f998 f590 fb6f fd23 06b8 f9e7 fd53 0532 fdf5 06a8 
fe58 f7bf fac0 ff42 04e3 fc3c ffed 07c1 fc48 0305 
fdd2 fa6f fbeb 00c1 0415 ff1d 0030 07c9 f89d fdd7 
0111 fbaf fbad 01da ff98 fdb2 034c 0626 f7c3 fd22 
0190 fd4f fc09 001e fe91 fedc 037f 0659 f9be fa3d 
03e1 fdf4 fb96 0178 018b fcf0 02c5 0464 fabe f744 
05cc 0078 fb48 0003 ffae fcf6 0419 ffa8 fc41 fa8a 
02e1 00c9 0060 fed8 0062 fe57 0291 fecb fe12 fc9c 
0061 0149 020e ff27 ffb3 fe1d ffdb fefa ffcb ff67 
fefd 0053 01b3 ff93 000d fed8 fe07 0077 ff0a 0161 
010c 023f ff56 fff2 ff8e ff03 ff97 ff5b 001d 00c1 
0121 ffb3 ffa1 0052 01c1 fe31 0028 001a ff48 0057 
0151 ffa3 0004 fe74 0040 fdb4 017b ffc6 ff35 0132 
ff46 0069 ffdb 00f3 00fb fec0 00fa 000a 0094 ff52 
fd99 01ea fff7 01a9 ffda ff0d ffcf 003e 0004 ff27 
004c fffb 02fb 009a 0157 fdfc fcd6 000d fd31 011f 
03ad ff48 064e fd5a ff74 f8f0 fd55 fdae fa6e 011d 
0398 fe03 052a fd36 0295 f758 0220 fde2 f7b8 fe98 
02f9 fc9a 0295 f759 0228 f56f 0197 fc0f fa1f ff3d 
02e3 fb1d 0422 f545 0631 f7f2 029e f781 ff2d 01c0 
02ca fc07 0134 f6a4 052c fa06 050b f807 0045 0028 
037f fbbe 0070 f88d 0078 febf 0812 f4ba 017f 01b4 
fe7a fee5 01b2 fd20 fe35 fe17 0725 f46f 003f 008c 
f7a4 ff3e 0191 fdf0 0057 fd17 0308 f780 03f3 feba 
ef5e 0850 02af 01df 0164 f95f 003a fa58 0318 fa62 
ef02 09cd 0319 fd06 071d f8fb 01e9 fb78 0184 feb3 
f21d 00bb ff7f fa5a 075e f70b 011e ff90 0012 0104 
f90c fc1f ff49 fb21 0746 fa7f fe0a 00ab fdeb 033b 
fe6c f2d6 fcd6 fe86 06a3 fda5 fbed 045a fc0a 03ba 
001d f638 fcb7 00dd 03aa fc92 00a1 0426 f85a ff70 
ff2b fa8c fbfe 022d 0023 ffbd 0171 063c f877 fadf 
01c4 fca6 fc14 024a ff88 0006 ff4b 05f3 f8d3 f8ef 
01da fc77 0049 04b8 036d fe6b fdef 033b f82a f84a 
031a ff3c 00c4 0393 0211 fe89 0022 0152 f903 f9a3 
02fe 0062 006d 0075 ffd4 fda0 00bf feb7 fe05 fb73 
0132 fe51 028f ff01 00cb 00c1 0020 fe99 fd64 fc01 
0015 ff83 0708 ff63 feaa fe7e fe11 004f fead fddc 
00ec 0152 0439 0053 01b7 fe96 fe9b feed ff0a fed6 
ff45 01ea ffcc fe32 00d4 fdc2 fe69 febc 00b1 ff83 
fecf 00a8 ff2b fe4c 01bd fdb4 ff15 0099 00f3 0060 
ff3f 0131 00d3 0087 00a5 ff76 ff1f 00cd 0157 012a 
00ce ffb9 fd56 0046 0151 fdf1 fff8 fec2 fee4 ff15 
ffc9 01ba 01a3 04aa ffce fea9 ff05 fed2 feed ff49 
feb3 0095 04aa 0262 fe7e fe31 fb60 fe72 fcbc ff1a 
037a fda7 07e9 ffde fd35 ff1f fc87 fca2 fa83 fbf1 
021d fbeb 0750 fb5e 0037 fe81 0070 fb71 faa8 fc35 
0321 f944 039e f958 0266 f77d 0368 f94e ff2d ff94 
0167 faea 03ae f435 069a f24e 0348 fa25 054f 0252 
016c fc2b 01c4 f256 03af f2a8 04e4 fa54 036a ffe9 
02bf 004e 0379 ecf6 0081 f5a6 0770 f6e1 0043 03e4 
fe57 ff52 035d efcf fee0 f7ea 09ec fa5b 03d8 0255 
f47a 00f8 0317 f365 0236 f6c8 02c7 fb17 0760 fe63 
ef83 07bb 0346 f648 0442 f209 02b1 fd31 00a5 ff28 
f154 08a0 0037 f8d1 09a8 f62f 025f fea9 0026 0003 
f792 fda3 013e faae 079c f931 00c5 ff64 fda9 0260 
fce5 f5cc 017c ff31 0805 fbc9 fe1c fda7 fec7 0053 
0095 f3d5 fe38 01bc 0361 0001 0082 00a8 fcc3 0040 
01bd f820 0023 0273 00bc 02eb 010e 012c faa6 fc0b 
0159 fb57 fce1 043e fc7b 010e 0029 028a fa42 fb57 
0236 fbe2 00c7 02d3 fe1f 00d6 fed1 0021 fb93 f92f 
0249 fd94 008b 04da fed3 000d fe23 fee6 fac6 f978 
00f6 fe62 0192 0515 fc4d 00a2 00ab fd24 fbb7 f8d4 
00e6 fe83 0244 02fa fd55 ff19 0055 fd44 fe97 fb45 
014e ff4f 07e8 fcb7 ff6d 0163 fece fe10 fe78 fd72 
ff28 0008 0818 fe4c ff10 ffca fc3b 0061 ff8c 0096 
fee8 0235 035b fffa 024f fec5 fdd3 0074 ff81 ff01 
fec8 0157 00ae ff76 0243 ff59 fffa ffa9 0027 ffc1 
00c4 0037 0061 006a 00d1 fd90 fecc ff4a 0058 ffef 
fff6 ff9e fef1 0088 0117 feb9 0101 ff04 0115 ff67 
0040 0022 fdff 020c 00a4 ff94 ff17 00f6 00a0 ff70 
fe5f 008e 0151 05fc 0060 febc fdfe fe83 fe23 fea8 
fdf7 ff63 05f3 0412 fdfd 0071 fc58 ffd2 fbf1 fcf2 
0258 fd73 08a4 02a1 fb15 01d7 f99a fcd5 fcbb fbd9 
0318 f9c5 09c3 ff2a fb34 041f fb99 f878 fcd3 fa09 
02a4 f87e 0683 ff3e ff04 003e ffec f87b ff89 fa17 
01d9 fe7c 03c6 faec 00c1 f92e 03bd f660 03e0 fd6c 
0464 ffbe 0335 f2bb ff65 f471 02f0 f7bc 04d6 fd98 
0433 ff40 04c2 efc8 fbb3 f335 04ea f601 03e0 0121 
ff92 0174 047e efa9 fd01 f24a 06dc fb3f 04bc 0156 
f711 02ec 0959 ec3c ff0c f6a0 069a fbb9 0460 fbc2 
f4ff 0653 079a ef0c 03e4 f980 02b2 ffd1 016f fb14 
f646 04d3 040a f4e6 03cc f9fa 0201 012c fb9b fefc 
fc54 fa81 01c0 fb53 04c7 fc65 0103 fe55 ff4d 02f5 
010d f749 0068 0112 01dd fe73 0413 fd64 fb6e feaf 
0077 f807 0207 03e0 fc2f 0192 0035 fdc9 faa2 fd82 
0052 f914 0176 0577 fbfa ffd1 0396 fcf8 fdcd fb43 
004a fbdb 00a3 066b fb2c 0247 020f fb93 fb37 fbe4 
ff01 fd16 0126 0209 fce0 0068 00eb fa92 fe85 fb3e 
0105 fd23 0202 0531 fa52 0238 00f1 f88e fdbc fb56 
0206 fe1c 0361 0316 fa12 fff4 fea8 f90c ff06 f9f2 
fffb fe5b 0821 0341 fb75 01aa fe32 fc06 fc08 f9d4 
0127 fedc 0a99 fb8d fe71 01f3 fd22 fc3d fe3c faf6 
fe90 0155 07fb ffc3 0023 fe4f fd01 ffff fde6 006f 
ffd9 00d8 ffbc 008a ff60 fe8c 0089 ff19 0087 0179 
00de 0043 ff25 ff58 00da ff7a 0073 ff38 008c 0076 
ff57 01da fe7b 00a2 ffc1 ff1a 00f0 fef7 ffeb ff71 
fef6 00d0 fee4 00ee 0092 ff35 fefb ff6e 0084 00e1 
ff0f 0056 fe0f 01ed ffd7 fe39 00aa 0166 ff6b 0024 
fdd1 0153 fed4 05e6 0033 fe5c fe93 ff91 fcaa fedc 
fe23 feae 031f 0481 fd0a 03bd fa90 fcbe fb21 fbc9 
0004 fcd4 063f 0600 fb17 0308 fa89 fadb fd84 fbdb 
036b f7cb 0613 048e f7bb 0632 facf f6f6 fe0a f860 
0115 fc5a 04cc 009c f799 0266 fdef f71d 01f3 f9c6 
033b fe45 0563 ff06 f630 010e ffcd f7fa 017e f884 
0319 ff2b 0563 f9b3 f6b4 ff73 0337 f471 03c8 f8d2 
07fb fd7d 06e8 fa46 f5d3 faef 0606 f930 01bb f771 
04a0 0087 059e f8f7 f4a7 fbac 090e fa62 ffd9 f8b9 
fe61 01f2 0644 f531 f712 fca3 0948 fb78 ff6b f8e9 
fd7c 054f 05c0 f533 fae4 022c 05e5 00bb fcfb f9ca 
fd0f 0169 0540 f8fe fffb 0226 0448 00ad fbe3 fb53 
fed6 fb8c ff2f fe76 ff9f ff74 02d3 fe66 fe8a fdde 
fefd fcc1 013e 04b8 fe75 ff4a 0205 fcb6 fcd7 fb49 
005f fd7e 0266 0583 fc01 ff16 0129 fb5f fd63 fd8d 
fd7d fc0a 0220 057a fc2c 00ec 02f3 f764 fd71 fbd7 
fe17 fbd2 02fa 0638 faeb 01bd 03ba f8cb fe49 fd19 
ffba fcdc 0166 049b fa32 ffd9 0144 f80a ff7a fe40 
0161 fdab 022b 0412 fbd3 feb3 01b4 f5a7 fdf6 fbfb 
01de fc23 0628 025e f886 032b 00d3 f89c 00ac fbec 
00f3 ff69 0728 006d faa4 024b fe9a fb5e fe40 fc7b 
ffe7 ffc1 08e6 fdcb fd8e 015d febd fcab fd05 fe76 
ff8f 0005 0404 ff70 ff85 ffc5 fed9 ff73 0068 012c 
ffe3 01b6 00b8 ff32 0135 fda7 feb4 ffc6 003d 00db 
ffa3 0064 0058 fed8 024b ff20 ffb4 ff77 ff52 ff18 
ffcc 01e9 fe55 ffff 01c5 fed6 0097 0148 0053 016e 
0055 0217 003b ffff 0020 fecd 0151 007f ffe3 ff1d 
ff62 ffe5 fff6 0034 01be fd2c ff8b feb5 00cb 015b 
ffaf 00f0 009d 0714 009e feea fe18 fe46 fc54 ffef 
ff22 ffec 03fd 07ad fe19 0139 fc28 fe60 fb29 ff1e 
004b fdbf 045d 05a3 fa71 02e3 fa22 fbd5 fd21 fa5d 
0226 fe19 0676 04b1 f56c 0306 f9cc f784 00cc fa06 
0193 fc50 0683 0319 f33d 0372 fc61 f699 0324 f744 
01d5 ffc9 067e 01ad f2ae 0830 ff17 f8ac ff41 f4fa 
0315 fe84 0493 012c f289 04d2 0196 f7b1 003c f3b5 
0733 fe27 0372 fef2 f372 02b1 0472 faf5 fddc f24d 
0576 ffb8 03c5 fe2c f682 0487 035d fab8 fc8e f717 
0251 fe8e 031c fd57 f88d 0343 0541 ff81 fd4a f800 
ff73 0051 00a8 fd09 f90a 0264 05b8 0005 fb44 fb35 
feff 0028 ff6c fdf5 fe35 ff0e 0756 00a6 fb6e fdf7 
fdbb fec0 ffec fee6 fde1 ff00 04d4 fbc5 fe20 fe19 
fe4e 0035 0217 00b8 fc2b 0187 03b8 f9fe fbb0 fcb8 
fec3 00cb ff7a 037c fd79 0060 0240 f847 fcbe fd86 
ff05 fe89 015f 042a fbcf 0253 052c f79a ff4e fa56 
fe99 fc43 0596 02bf fafd 01b5 017f f748 ffad fe79 
ffbf fd09 0449 0529 fc78 01c7 025a f6f1 0041 fc30 
ffe0 fba1 056f 0168 fbe9 020a 006d f81f fe9f fbfa 
ff97 fcc8 08ab fe2a fc6d 0578 fc80 fa07 0015 fd8b 
fe4f fe8e 0a03 fdb8 fc4a 0402 fde8 fc6e fec9 ff63 
003b 00ca 074c ff18 fe95 01c4 fea7 ff96 fe1c 014b 
ff04 ffe9 00fa ff1a 00c8 fe90 0061 fe93 fe34 0030 
0132 008c 00d1 ffb1 0159 fea7 0017 00d9 ffb0 00de 
00c5 0018 009f 00da 0156 feb9 0109 0106 0108 ff55 
ff0d 017e 00dd 004d 000a ff79 00ee ff5a 0117 018a 
00de 01a1 fe36 ff3d 000b fdf1 0145 006e 011e 00db 
ff5f ff8e ff1c 0069 0066 fdee 00cc 0045 ff46 00a9 
ffb2 0209 ffd2 0471 ff54 feb8 00ef ffa0 fef3 ff5f 
fe8f 01af 0055 06fc ffee 0148 fc83 fe05 fc6f fe5f 
0006 0055 0215 0529 fbea fedf fc94 fbf5 ff7b fbbd 
0184 022a 029a 038a f7ff 0155 fb2f fb66 0170 f8a4 
0206 0279 036f 01bd f754 0263 fbaa fb28 0318 f845 
0236 00bb 05cd 0290 f781 0523 fd60 fa29 006a f79a 
04b0 fe81 043e 01a5 f7bc 04f5 fe6c fc9b 003e f833 
0477 fe40 01a8 ff7c f78b 031e 0270 fba3 fdd0 f5f4 
0553 fd32 0310 ffd9 faff 0258 0295 fdaf fc5d f808 
0384 faa6 ffe7 fff6 fa71 015c 05b1 fd69 fe3e f9a2 
0137 fc38 fdce 0193 fa4b 01b6 05c7 0038 ff7a faa6 
feb2 fdd5 fd1d 003e fbb2 006d 06d2 fdfc ff98 fcaa 
ff19 fff0 0004 fecb fcd5 01c5 048d fd80 fed7 fbcf 
ffee 02e5 0210 0279 fda5 ffb2 0423 fbce fce4 fd26 
fe51 0092 022c 0127 ffe1 004b 02bb f9bc fe92 fb77 
fd08 ff0f 03ac 0403 fd75 00c7 02db f647 febd fac1 
fcd7 fed0 03c5 03ec fec0 0091 00d6 f724 ff24 f9bc 
00b9 fc65 033f 00ca ff3a 017d fed2 f6b1 fe59 fcda 
ff38 fcab 06ae fe37 ff2f 049c fdb8 f9a1 ffd3 fe30 
006d ff16 08a1 fdaa fe0a 0408 fbf6 f940 ff97 ff94 
fed0 fe7a 07d3 fbd8 fed6 00df fda9 fbbb fe99 ff50 
002b 0182 031f fed6 0122 fe70 ffd4 ff4f fd66 00dd 
fee4 004d 001c ff5f 0043 fe09 ff58 ff27 fe95 0016 
00c6 0240 00d4 ff2f 01d5 ffde 0083 ff9e 0009 ffed 
00a6 00f7 fe71 fe68 0248 ff3b 0144 ff72 0189 0011 
012e 024a ff4a 008e 00bc ffec ff20 fff3 00d9 0133 
0012 0044 fe39 fe73 01ee fe72 007c 00d5 0109 00ba 
00c2 ff82 fea8 ff18 00e3 fe20 0018 fdfc ff15 0125 
fe46 00c8 0113 02d9 ff98 ff52 ffe3 feaf ffe2 0033 
ff56 02bd 022d 04e0 003d 006c fed4 ff12 fa75 ffd9 
0028 03b3 0238 05ad ffa8 ff30 fd9b fe1b fbcd fb3c 
ff9e 0378 0200 0569 fb00 fb98 fa6b fea7 ff3d fabc 
0294 027e 0248 02b6 f8f1 fd83 f927 0014 fe95 f77f 
0152 ffcf 0204 00f5 fae4 0171 f937 fe80 fee5 fae2 
023c ff04 00e2 0181 fc28 0338 fc71 fe14 ff94 fb36 
02f9 fcff 014f 01c9 fb01 008f fdfc fd9a 0037 fb3d 
0462 fa54 0244 00c6 fbd9 0267 fec5 fb58 00a9 fbee 
0485 f73f fe34 0039 fbd4 04eb 00f5 fc44 033c fc6f 
03be f94d fc95 fee6 fd14 04d5 00d8 fe51 0509 faa7 
01f8 fe27 fadb ff99 fb87 0159 fd78 007f 0305 faa1 
0168 0210 fc59 ff2a fed2 fead fffd ff57 00ed fac9 
00ab 05f9 fd0a 0041 ff13 ffb1 01d9 fd66 fe39 fb7d 
ff27 068a 007b ff81 fe3d 0088 0080 fad8 fe12 fa5a 
ff07 02ee 0570 fe12 0192 01e5 fd97 f937 0114 f9b9 
ffc8 ff01 03fc 0148 02bd 0257 fc8c f935 fe0e fb69 
fe43 fdab 060d ff94 0345 029b faf0 f92a fee5 fd51 
fd04 fc5b 05ef ff62 0244 026c fb2b f933 001b 00f5 
ff2c ffe8 0444 fc74 fe73 0272 fc91 fb2b 00a2 006c 
ff7a fff5 03b1 fef6 0007 ffad ff6f fdff fd96 01c4 
005f 0193 0181 febb 00d3 fe8d ffe6 fe62 feda 0199 
ff45 0036 feda ffb1 0237 ff38 fec0 ffe9 00fe 0040 
ff52 0026 ff4f 0033 0243 ffb6 ff3d 012e ffc9 00ed 
ff26 008c 009d fe4b 020a fdd9 0150 001e ff51 0196 
006d 01c8 ff63 ff47 0046 ffca 009b 012d ff63 0179 
0143 004f 009e 0077 021a ff5b 013e 0033 00df 012b 
00a9 0027 002c ffba 013d fd8a 00d1 fef1 ff20 0068 
006f 0179 0091 00fd 012a fe3c ff26 0044 00ac 008b 
fef6 0168 0041 0347 00eb fef1 00a0 010e fd2a fe92 
fd38 0633 fe1c 045c 007e ff0c ffbc 020d f8cc fc9e 
ff97 0461 fbf5 0314 feb8 ff45 fd01 01ef fa7a fd03 
ff5a 023f fc28 04e5 fd54 fe8d fb16 03cd fc2f fcaf 
01f9 0066 fca7 013d fcb1 0257 fad2 01ab fe53 fdb4 
04a1 fe25 fc51 00ba fd62 01dc f99b fef1 ffc9 ff05 
04c0 fd92 fe7a 010b fd45 0158 f60b ff63 006a fdca 
05c1 fd50 fff2 ffe7 feb5 017d f6f1 fd84 03ba fbaf 
04de fbe6 feea 006d fc51 01f0 f865 fc99 0554 fc8b 
03e9 fa5c fa32 fefe fac8 ff9b f906 fe0e 07e2 fb80 
01e2 fd0d f9bb ff8d fe5f 0000 fbd1 ff6a 054b f996 
012e 01c7 f984 00c1 fc46 02cd fa0f 0069 04ae f96d 
00ab 078b fcdf 0020 fee0 01d1 f7cc ff05 02f5 f817 
fee9 0629 fbf8 ff7b 0047 0189 f800 fd07 0288 fadd 
fb9b 02ae 0087 0029 031e ff14 f96e fce2 0210 fc91 
fd9b ff33 021b 0017 0337 fef2 f9ed fba4 02ac ff25 
fb2f fdd6 0185 fd55 040f fffe fdee fa4d 02d1 0148 
fdf9 ff16 042f fe39 ffa8 ff7a feb3 fbc0 ff79 0361 
0016 feec 0346 fe1e fec6 00bc fde5 fc42 0081 032b 
00eb fff4 017f fdc0 0067 0002 ffe1 fdc8 00b0 0516 
ffe0 0073 0149 002d fff8 ff07 0121 002b ff39 027b 
003e 01d9 ffeb ff96 00da fd97 ff13 00ed fea8 0120 
ffd5 01a0 00d0 ffe4 0160 fec2 fefd ff82 00e5 0047 
010a 0130 ffa8 ffe9 0199 fe7f ffdf fea4 ff10 003a 
0169 0239 fe49 0093 0114 fe4f 0144 ff7c ff35 ffc0 
ffc2 01d5 fed5 0011 0251 fdb9 fef2 00bb 0135 00d2 
0020 fff3 fe72 ffea 0091 0007 fefd 00fa ff7a ffd4 
013a 01e9 ff05 fefe 0053 fe58 002f 00e8 0065 0065 
00dc 01b6 fee5 02f8 0120 fd4c 0134 02c8 fe3b fedc 
fec6 007c fb6d 04a6 ff2d fedb ff4c 0541 fb7a fef2 
fdcb 02d8 f9e1 053a ff1d ffb8 ff44 06f7 f852 00e6 
fc34 fe44 f964 0654 fc35 ffc5 0030 062c f94e 02a8 
fd5d f9f9 f8b6 0320 fdd7 fec9 fe0b 05a9 fef3 0336 
fdd2 fa7d f875 03c4 fbd5 00dd fc92 03f2 ff0b 0290 
fd99 f810 f798 0427 ff64 0037 fc5f 0480 0077 ff84 
ff0b f888 fafb 049b fec2 01b6 fc07 0206 0322 fcfe 
010c f913 fb3d 04b5 fcae 00e6 fa91 018d 0133 fd65 
0122 fa61 fb74 045b fcd4 0189 f938 0172 0122 fbea 
0062 f8e2 f971 0361 fc63 036e f98f 02bb 03a7 fc32 
001d fa4d fb2c 0301 fb34 0150 fa0f 0276 0497 fae7 
fd0c fde0 fb60 014c ff0f ff52 f8ad 00d5 059f fe1e 
fb98 01c6 fa37 fd3a fde2 ff08 fa51 00d8 0409 0006 
fd56 00e1 fc6a fa65 ff1b fe0d fc8a fdcc 0450 0153 
fd32 00f9 fc1d fb21 ffd3 fe32 ff27 fc0c 0733 031e 
fb70 ff47 fe02 fc9e 0031 ff52 ff3d fdb4 01e6 06a1 
fcb3 ff5f fefc fde2 fe03 fe91 feed fe07 00ef 04a2 
ffb0 ff9c ff0f ff22 ff03 fe64 0053 fd3a 0134 0507 
0051 0160 fe5f fec7 ff80 ff3c ff9b fdc1 0176 0646 
005f 023e 0031 ff5a 00bb fe46 fed9 fe8a ffad 01c2 
fee1 0032 008a ff6d fff4 fe6b ff80 ffc2 0142 ff80 
00b6 0243 00b7 fec3 0167 fedf 0063 00ac 010a 0087 
ffa4 0058 fe6c 00e3 0067 001d ff77 00a0 ffcf 01a9 
ff3d 0103 008a 0083 00e8 fd8f 0027 ff56 ffe6 0105 
0028 00b3 fee1 ff7f 008f fda9 ffeb fed6 0125 00bf 
ff06 0173 fee8 ff72 ffb6 fec1 0149 ff3b 000d 0124 
ffac 0102 fe1a fee5 00ce fdea ff7e 0191 013d fef3 
ff2f 0038 fe29 0017 ffa1 fe71 008a 00f1 0006 0139 
ff9e 009e feac 018b 008c fe84 ff08 0317 fdc6 0263 
ff97 00e0 fe1a 02dc febe ff1f ff6b 02ce fc43 019e 
ff9f fe60 fc03 0116 fca3 fef9 0082 0456 fbf8 044e 
fc33 fdd2 f910 0336 fdf6 fe5a fea1 0430 fd28 0548 
fac5 fd7d fa15 043a f9bf ff3a ff5c 04a5 fbf4 0390 
fc1f fae9 fb9c 05f0 f9ff ff3e fe1a 05ee fdbe 03f9 
fa35 f9bd f92e 0680 f9a3 011e fef6 07f5 fcc1 0212 
f9f0 fa37 fc15 045c f67a 0110 ff9f 0676 fc29 03ae 
fc05 fa24 fdb5 0507 f976 0456 fde1 03c4 fc8e 0305 
fadb f92f fbb5 026b fa31 0038 fd7f 0426 feed 0150 
fae4 fa68 fbca ffe2 fa3e ff9e ff4a 0571 0172 03e1 
fc62 fb9b fb19 febe f7fd ff39 fdb1 04dc 02af 04aa 
fb11 ff84 fdab fd35 f5ff fe61 0074 027d 01ce 075b 
fd09 000e fdef fcc5 f948 feb1 ffc8 0348 0155 0884 
fd4c 0131 fecb feac fb60 fe3c fecd 0007 01d7 0740 
fed6 ff8d ff79 fcb3 fb2f fd21 ff6f ff48 000a 084e 
fdca 019b fffd fd7c fcee fe46 ff3f fddd 00be 0868 
0001 018b ff9e 0073 0033 fe27 ffbf ff1c 0017 045c 
fef7 fffa fe82 fe71 015c 002f ffc0 fe44 ff9d 02a7 
fff5 0043 0032 00e1 ff44 fff9 0080 ff5c fff6 0200 
017c 0090 fe44 fee8 01db ff59 ff9a fffa ff39 ffaf 
015a 0045 00b4 ff45 01bf fe7b ffb7 ff7b 0196 ffa0 
003c 0135 ff86 007a 01ba fdb1 0102 fed4 0058 0111 
ff83 00ed fec9 fef3 ff96 fe7a fffb ff78 0011 016c 
fefb 021b fe90 ff7a 011c fe49 000a fe91 0026 00f2 
0021 000f ffab 00cb 024e fe1f 00e0 ff02 ffdf ff44 
ff73 0053 ffc9 fff1 0091 fe1a 0062 ff41 ff4d ffe2 
00d3 0183 0099 fef6 01cd fd78 014c fef1 0084 0123 
0063 0075 feea ff88 0064 ff3b fed4 013b ff0d 0137 
0000 ff47 ff41 ff4c ff0b fd8a 0148 01e9 00aa 017f 
fec1 ff54 fe83 fed1 ffda ff25 00b0 ffe3 ff45 0469 
ffb7 008f fffa feca fdb3 fdec 0122 0015 ff04 0466 
fe9b 004f 0042 fdf9 fc99 ff4f ff1e 01a3 007c 0621 
fdc6 ffe6 fee8 ff46 fc11 fd90 fe8f 0110 ff8e 0613 
ff40 ff19 ff90 fe57 f9b6 ff56 0082 03ca ff19 05f7 
fe1c ffe8 fff5 fed3 fa9e 0039 0007 0091 fe43 0712 
fd6a feb4 ffa5 fecc fa97 ffb6 010b 0389 ffae 0790 
ff4e fddf fe24 003c f881 ff47 000e 059e fe51 0835 
ffdc fef5 0020 fdf4 f916 ffaa ff5a 040f ff69 065e 
fdda febd 00c1 fe21 faa9 ff8f ff64 03cf ff68 043f 
ff98 ff85 ffce ff25 faa3 fd93 014b 0384 00d1 0382 
ff5b 0018 006d ffe5 fb2b fc6d ff9b 023f 00de 0590 
ff68 023a ff41 ff7e fd8c feb4 fff9 0221 0083 0530 
fea5 000a ff25 fe65 fd5d fe34 0049 fed8 00e4 028e 
fe72 0000 001e ff31 ff10 fe95 ff13 0059 0140 0256 
ff7a 01e5 ff73 00e5 00f3 ff5c 001c 0173 fec8 ffcc 
ff14 ffa9 ffa0 fec8 014b fd6f ff1d 0011 ff51 ff73 
00b0 0158 001e fea1 00ae fde2 00b9 0005 015f 00e2 
017c 003e 004f fe2b 0181 fdb9 ffbc fea9 0150 0158 
0029 0060 ffde ffdd 0071 fe50 ff67 ff47 ff51 014a 
0116 0021 ffe8 0022 0079 fdb7 ff6f ff4a 0026 ff4f 
ff0a 021f 00b7 fe58 01c8 fe5f febc ffc2 ff3e 0017 
fefc 0059 009b fe80 ffc6 fd9f 00fc 0148 0076 0059 
015a 0244 00ca 0013 01e8 ff2e fedc 00b5 fffa 01b6 
0157 002e ff47 ff44 009c fdf1 0065 fee2 0137 00ce 
00c1 0192 fe9a fec5 0258 fdfe ff5e ff2b 004f 003f 
ffc3 00d5 fe45 ffb6 002c fe8d ff7d ffea 0168 00c9 
fefd 00d6 00a6 fff7 0214 fe39 008a ff10 0020 00c2 
0180 00ff 00e3 ff65 0062 ffe7 010b 0102 0184 0008 
0023 00e4 feb8 ff67 0002 0002 0013 00bc 004b 00fd 
012e 019b ff20 0029 0199 ff60 00ce 000b 018c ffbf 
fed4 00a0 00ae ff55 0091 fdc1 ff30 ffff fee3 00f4 
0036 01be feb9 0093 ff9d 0034 0164 ffff ffd7 ffea 
00f5 012b 0011 fe62 00d2 ff95 ff47 015e fffb 0039 
fff4 018c fedd fea1 007c fd6a 0023 025b 004f 011f 
0056 01cc feef 00c7 feb2 fdbd 0000 ff1a ffc3 0101 
feb2 017f fe3b 0071 0053 ff16 fff5 011a 0117 0002 
ff48 0116 fe9c 007c 0000 fe35 ff8d 0083 00fc feae 
ff46 fff9 fe35 fe80 feeb ff93 fedc 012a 013e 002f 
0132 00b5 00e7 ffd5 00e6 fd88 ff78 0230 0193 fff4 
008e 0245 005a fee2 00e3 feeb fed0 0096 ff64 01ae 
0099 ffac ff85 fed3 0136 ffc2 fff8 feb4 fef1 013c 
015f 01cd ffeb 005f ffd9 fe9e ff52 fedb ffbd 00a6 
fede 00a0 0020 00d6 01be ff40 ff00 ffe3 00d8 0098 
fedf 001c fe95 0066 0256 ff46 ffc7 ffe8 00fc 01a8 
007c 01b3 0082 0078 01a1 ff05 017b ff07 008f 0199 
fef2 01ff fe7d fea6 0156 fdc6 00c5 fe9e ff51 ffaf 
0180 0221 ffe4 fed9 01a9 fd92 014a fef7 ff3b 013b 
0172 0170 006c ffb6 021b 0000 008d 013b 0128 00bd 
