00000000 00000000 00000000 00000000 00000000 00000000 00000000 00000000 00000000 00000000 
00000000 00000000 00000000 00000000 00000000 00000000 00000000 00000000 00000000 00000000 
00000000 00000000 00000000 00000000 00000000 00000000 00000000 00000000 00000000 00000000 
00000000 00000000 00000000 00000000 00000000 00000000 00000000 00000000 00000000 00000000 
00000000 00000000 00000000 00000000 00000000 00000000 00000000 00000000 00000000 00000000 
00000000 00000000 00000000 00000000 00000000 00000000 00000000 00000000 00000000 00000000 
00000000 00000000 00000000 00000000 00000000 00000000 00000000 00000000 00000000 00000000 
00000000 00000000 00000000 00000000 00000000 00000000 00000000 00000000 00000000 00000000 
00000000 00000000 00000000 00000000 00000000 00000000 00000000 00000000 00000000 00000000 
00000000 00000000 00000000 00000000 00000000 00000000 00000000 00000000 00000000 00000000 
00000000 00000000 00000000 00000000 00000000 00000000 00000000 00000000 00000000 00000000 
00000000 00000000 00000000 00000000 00000000 00000000 00000000 00000000 00000000 00000000 
00000000 00000000 00000001 00000000 00000000 00000000 00000000 00000000 00000000 00000000 
00000000 00000000 00000016 00000000 000000f0 00000000 000000fd 00000000 000000ff 000000ff 
00000000 00000000 00000016 00000000 000000f0 00000000 000000fd 00000000 000000ff 000000ff 
00000000 00000000 00000000 00000000 00000000 00000000 00000000 00000000 00000000 00000000 
00000000 00000000 00000000 00000000 00000000 00000000 00000000 00000000 00000000 00000000 
00000000 00000000 00000000 00000000 00000000 00000000 00000000 00000000 00000000 00000000 
00000000 00000000 00000000 00000000 00000000 00000000 00000000 00000000 00000000 00000000 
00000000 00000000 00000000 00000000 00000000 00000000 00000000 00000000 00000000 00000000 
00000000 00000000 00000000 00000000 00000000 00000000 00000000 00000000 00000000 00000000 
00000000 00000000 00000000 00000000 00000000 00000000 00000000 00000000 00000000 00000000 
00000000 00000000 00000000 00000000 00000000 00000000 00000000 00000000 00000000 00000000 
00000000 00000000 00000000 00000000 00000000 00000000 00000000 00000000 00000000 00000000 
00000000 00000000 00000000 00000000 00000000 00000000 00000000 00000000 00000000 00000000 
00000000 00000000 00000000 00000000 00000000 00000000 00000000 00000000 00000000 00000000 
00000000 00000000 00000000 00000000 00000000 00000000 00000000 00000000 00000000 00000000 
00000000 00000000 00000000 00000000 00000000 00000000 00000000 00000000 00000000 00000000 
00000000 00000000 00000000 00000000 00000000 00000000 00000000 00000000 00000000 00000000 
00000000 00000000 00000000 00000000 00000000 00000000 00000000 00000000 00000000 00000000 
00000000 00000000 00000000 00000000 00000000 00000000 00000000 00000000 00000000 00000000 
00000000 00000000 00000000 00000000 00000000 00000000 00000000 00000000 00000000 00000000 
00000000 00000000 00000000 00000000 00000000 00000000 00000000 00000000 00000000 00000000 
00000000 00000000 000000dd 00000000 000000da 00000000 0000004a 00000000 00000000 00000000 
00000000 00000000 0000008d 00000000 000000c6 00000000 000000b1 00000000 00000000 000000ff 
000000ff 000000ff 0000009b 000000ff 00000012 000000ff 00000091 000000d8 00000000 000000f3 
000000f4 000000dd 000000ab 000000f3 0000006c 000000f4 0000008d 000000f6 000000fb 000000b7 
000000fd 000000e7 0000005a 000000fd 0000005e 000000fd 000000d4 000000ba 000000fc 000000e4 
000000fd 000000f4 00000099 000000ff 00000018 000000fd 0000008b 000000f8 000000fb 000000e9 
0000001f 00000000 00000005 000000fa 00000080 000000fb 00000096 00000021 000000ee 000000c5 
00000015 000000f0 000000f5 00000095 0000003f 000000c7 000000b8 00000027 000000b7 000000d9 
00000068 000000fc 00000037 000000e8 00000097 000000cf 000000fe 00000079 000000d0 000000d5 
000000b8 00000072 00000035 000000b1 0000004c 000000d7 000000d4 000000fa 00000074 0000008c 
000000dc 00000053 000000db 00000097 000000bc 000000cd 0000000a 000000e3 000000d1 0000001a 
0000002e 0000000d 000000c9 000000e0 0000007a 000000c4 000000e9 000000c0 0000008b 000000af 
000000f3 0000002b 0000007b 000000e5 0000007d 000000b7 00000054 000000e2 0000006c 000000ae 
000000de 000000f4 0000003d 000000f9 0000003d 000000e6 00000072 00000000 0000008d 000000db 
000000f0 000000fc 00000065 000000fd 000000a0 0000000b 0000003a 00000000 000000eb 000000e6 
000000f5 000000fc 00000040 000000fb 000000f7 0000007f 00000084 00000000 000000f2 000000ec 
000000fe 00000000 000000f0 00000000 000000bb 000000e4 00000077 00000000 00000000 00000000 
00000000 00000000 000000fe 00000000 00000004 00000000 00000002 00000000 000000ff 000000fd 
00000000 00000000 000000ff 00000000 00000064 00000000 000000a3 00000000 000000ff 000000fc 
00000000 00000000 00000000 00000000 00000000 00000000 00000000 00000000 00000000 00000000 
00000000 00000000 00000000 00000000 00000000 00000000 00000000 00000000 00000000 00000000 
00000000 00000000 00000000 00000000 00000000 00000000 00000000 00000000 00000000 00000000 
00000000 00000000 00000000 00000000 00000000 00000000 00000000 00000000 00000000 00000000 
00000000 00000000 00000000 00000000 00000000 00000000 00000000 00000000 00000000 00000000 
00000000 00000000 00000000 00000000 00000000 00000000 00000000 00000000 00000000 00000000 
00000000 00000000 00000000 00000000 00000000 00000000 00000000 00000000 00000000 00000000 
000000fe 00000000 00000000 00000000 00000000 000000fe 00000005 00000000 00000000 00000000 
00000000 00000000 000000f7 00000000 000000e2 00000000 00000029 00000000 00000000 00000000 
000000fe 000000fe 000000ed 00000084 000000ab 00000000 000000eb 00000000 00000000 00000000 
0000004f 000000f5 000000ee 00000097 0000000e 000000fd 00000046 000000f6 000000fb 000000f9 
0000002d 000000dd 0000004c 0000008c 0000008c 000000e4 0000005f 00000093 000000eb 000000d4 
000000b7 000000f6 0000008d 0000001a 000000aa 000000da 000000e6 000000cf 000000cc 000000aa 
00000003 00000074 00000022 000000cd 000000d9 0000006d 000000a4 000000c3 00000043 000000ae 
000000c6 000000ae 000000b4 00000074 0000000c 00000010 000000d3 00000011 00000012 00000054 
0000001b 0000000a 0000000f 00000013 00000026 0000003b 000000d0 00000083 000000f4 00000011 
000000fb 00000008 0000001e 000000a8 000000a8 0000004f 00000038 000000c6 0000007a 000000c9 
0000001a 0000001e 00000030 0000000c 0000007a 000000d3 0000008e 000000fc 0000003c 0000007c 
000000e3 00000095 000000c8 000000c4 00000043 0000005a 000000aa 000000e4 00000017 000000ba 
000000c7 00000070 00000033 0000000e 000000bf 000000f0 00000081 000000ad 000000cd 000000e0 
0000000a 00000051 0000000b 0000006e 0000005b 00000055 00000070 00000087 00000043 00000044 
000000df 00000017 00000098 000000fc 0000004a 00000050 00000074 000000c8 0000002c 00000077 
00000061 0000005b 000000c3 000000ef 00000056 00000038 00000051 000000e9 000000b2 00000019 
000000ec 0000006e 0000008a 00000082 00000007 00000053 000000e2 000000ef 00000014 0000005e 
00000036 000000c4 0000007f 0000007f 00000003 0000005c 000000df 000000e5 00000030 000000b6 
00000061 000000bc 00000072 00000040 00000055 00000064 00000092 000000e1 00000032 000000d6 
00000074 000000e7 000000f1 00000031 00000078 0000005f 000000b0 000000f0 0000001e 000000f3 
000000b4 000000f8 000000fa 000000db 00000031 000000c3 000000be 00000000 000000d2 000000fd 
000000fb 000000ff 0000005c 000000fd 0000000b 000000c2 00000007 00000000 000000db 00000000 
00000000 00000000 000000f3 00000000 000000f0 000000a2 000000f1 00000000 0000008b 00000000 
00000000 00000000 00000000 00000000 00000000 00000000 00000000 00000000 00000000 00000000 
00000000 00000000 00000000 00000000 00000000 00000000 00000000 00000000 00000000 00000000 
00000000 00000000 00000000 00000000 00000000 00000000 00000000 00000000 00000000 00000000 
00000000 00000000 00000000 00000000 00000000 00000000 00000000 00000000 00000000 00000000 
00000000 00000000 00000000 00000000 00000000 00000000 00000000 00000000 00000000 00000000 
000000da 00000000 000000fe 00000000 000000fe 0000003c 000000ef 00000000 00000000 00000000 
0000009b 000000f7 000000c2 0000007d 000000df 00000044 00000078 000000d3 000000ef 000000d7 
00000011 000000a8 0000003a 00000096 000000fc 00000032 0000002f 000000d1 0000007d 000000d0 
00000058 00000011 000000fc 0000001f 00000022 00000056 000000ba 000000b1 000000f8 000000a5 
000000a9 00000020 0000006d 00000063 0000006a 00000045 0000000c 00000069 000000c9 0000007d 
0000004f 00000083 000000aa 00000035 00000002 00000035 0000004a 00000049 00000070 00000016 
000000e9 00000002 00000007 00000050 00000020 00000055 0000004b 000000a5 00000072 000000e8 
0000002f 000000b9 00000029 000000e9 0000004e 00000089 0000006e 00000082 000000ec 00000052 
000000a2 000000fa 00000080 00000089 000000ca 000000df 0000005f 0000003d 000000f1 00000025 
000000eb 000000eb 00000086 00000043 000000ed 00000079 000000e4 000000af 00000001 00000065 
00000077 00000016 000000b8 000000c4 000000da 000000cf 0000003a 00000026 0000007b 00000072 
00000090 000000a9 00000001 00000065 00000022 00000076 000000e5 00000009 000000ec 000000ee 
00000077 000000a3 00000061 00000093 00000062 00000070 000000a7 0000008d 0000000e 000000dd 
00000037 0000004b 00000021 0000005d 0000003f 000000be 00000000 000000f5 000000ee 0000001e 
000000d6 000000f4 000000eb 000000ca 00000013 0000005a 000000c5 000000c0 00000080 00000010 
00000024 000000ec 000000f1 00000066 00000069 000000ff 000000de 0000002b 00000095 00000091 
00000092 000000e7 000000b8 000000a8 00000081 000000f3 000000f4 000000fa 000000c9 000000fc 
00000018 00000022 0000008c 0000002c 00000032 00000062 000000e9 00000091 000000cc 00000036 
0000005e 000000e5 00000004 000000fe 000000cd 000000c3 000000f9 000000e2 0000006d 000000e4 
00000064 000000bc 00000010 000000e8 00000023 00000020 000000b8 00000055 0000001a 0000007f 
000000ee 000000e3 000000fb 0000001a 00000027 000000ed 0000009c 000000fd 00000086 000000e9 
0000006b 000000dc 0000007b 00000078 00000065 000000ef 000000cc 00000000 000000aa 000000fc 
00000018 0000001d 00000094 000000f1 000000e4 000000f2 0000000a 00000000 00000067 00000000 
000000f5 000000a7 000000fe 00000000 000000f5 00000041 000000df 00000000 00000052 00000000 
00000000 00000000 00000000 00000000 00000000 00000000 00000000 00000000 00000000 00000000 
00000000 00000000 00000000 00000000 00000000 00000000 00000000 00000000 00000000 00000000 
00000000 00000000 00000000 00000000 00000000 00000000 00000000 00000000 00000000 00000000 
00000000 00000000 000000ec 00000021 00000000 000000d5 00000000 00000000 0000001e 00000000 
000000e0 000000aa 0000008c 000000c9 000000fa 00000054 000000b9 0000002b 000000f5 000000fb 
00000031 00000039 000000b7 0000005d 00000019 000000ca 00000048 0000006f 00000020 000000c6 
0000005d 0000000a 0000003a 00000008 000000d0 00000075 000000ff 000000d0 00000015 00000030 
0000004c 000000d4 0000008a 000000a5 000000ea 000000cd 00000035 000000b0 00000030 000000e5 
00000059 00000059 000000d6 00000079 0000008f 0000009e 00000022 000000fb 0000005e 00000056 
00000021 0000004e 0000000c 000000d3 00000023 000000dd 00000029 00000054 0000000f 00000026 
0000005a 00000049 000000ab 00000004 00000014 0000009b 000000b0 00000081 000000fd 000000cf 
000000fd 000000f9 00000019 00000029 0000004f 000000e9 00000087 0000002b 000000de 00000002 
0000000b 00000064 00000089 000000a7 000000e9 00000000 0000007e 00000017 00000089 00000058 
0000004d 000000d0 00000031 00000004 0000005b 00000080 00000025 000000d6 0000000a 000000ce 
00000007 00000059 00000021 00000070 000000ff 00000063 00000017 00000078 000000d9 00000045 
000000ac 0000009b 00000001 0000003a 000000dc 00000047 00000004 00000006 000000c6 0000008c 
000000a7 00000064 0000002a 00000036 00000004 00000097 00000086 00000034 00000086 000000b8 
00000042 000000fb 000000c7 00000028 000000fe 000000b7 000000e7 00000097 0000008b 00000016 
0000004f 00000082 000000ad 0000007e 00000050 00000018 0000009f 000000ec 000000a8 00000068 
000000c5 00000079 000000ab 000000a0 00000030 0000000a 0000007c 000000e8 00000045 00000092 
0000005d 0000001d 0000000d 00000071 00000057 0000007e 0000009c 00000035 000000f3 0000006e 
000000c3 000000e7 0000002c 000000ec 000000bd 000000d7 00000073 00000049 00000039 000000b5 
000000bc 0000004b 000000e0 0000001b 00000067 00000083 0000000f 000000ca 00000023 00000018 
000000b4 00000081 000000c7 00000096 00000001 00000093 000000ec 0000004c 00000064 0000003e 
000000a1 000000dc 00000029 000000ad 00000083 000000e8 00000016 000000a4 000000a9 000000e0 
000000bf 00000084 00000016 000000b5 0000008c 00000080 000000b0 00000089 00000065 00000049 
00000024 0000007e 00000019 000000d1 00000026 000000e5 000000bd 000000fe 000000c8 000000e7 
00000090 00000053 00000041 00000000 000000f0 000000e1 0000008f 00000000 00000094 000000ec 
000000fd 0000005f 00000049 00000000 000000d1 00000071 000000ee 00000000 00000032 000000fd 
00000000 00000000 00000000 00000000 00000000 00000000 00000000 00000000 00000000 00000000 
00000000 00000000 00000000 00000000 00000000 00000000 00000000 00000000 00000000 00000000 
000000d8 000000d9 00000062 00000003 00000002 000000e7 0000000b 000000fc 000000fb 00000000 
000000cd 0000006d 0000000d 000000f7 00000061 00000095 0000008c 000000b0 00000097 000000f9 
00000083 0000007e 00000049 00000064 00000059 00000029 00000060 000000ee 000000eb 00000098 
00000059 0000008e 00000046 000000a0 0000004a 00000069 000000ef 00000001 000000af 000000e0 
000000bb 000000c0 00000067 000000f3 000000ac 00000072 0000006c 00000099 000000ff 00000008 
00000053 000000f1 00000074 000000b5 0000004f 00000018 00000094 000000f7 000000ef 000000b1 
00000003 0000009e 000000c7 0000004a 0000008c 000000c6 000000fc 000000de 000000e3 0000003f 
000000f2 000000bf 0000008e 0000002d 000000fd 0000009e 000000c8 0000008a 000000f8 000000b0 
00000020 000000d1 00000015 000000d6 0000003e 000000e0 000000d6 00000087 000000b0 000000f9 
00000069 000000d2 00000076 000000a3 00000061 000000f5 0000006d 00000049 000000b5 000000e7 
0000009d 000000a7 000000f0 000000a1 0000004b 00000063 000000de 0000003e 00000011 00000051 
000000c7 000000cc 00000015 0000001b 00000025 00000057 0000009b 0000006b 00000000 000000ba 
00000021 00000087 00000032 000000e9 000000e1 00000092 000000d3 00000079 000000a5 000000d8 
000000ad 000000e4 00000025 00000078 000000cd 0000009c 000000ab 0000008b 00000006 0000002c 
0000002b 00000038 000000ae 0000001d 00000069 000000e9 000000ca 000000a3 00000056 000000bd 
000000a5 0000007d 0000006b 000000e9 00000014 00000051 00000023 00000010 0000009b 00000057 
0000002e 000000a8 00000013 000000d3 0000003a 000000d2 0000008d 000000be 000000ca 00000022 
000000c8 000000e5 000000bf 00000016 000000c1 000000b1 00000076 0000009d 00000055 000000a2 
00000050 00000038 0000000f 00000045 00000033 000000fe 00000073 00000001 000000e3 0000009c 
000000a7 00000016 00000051 000000bd 00000022 0000006c 000000b3 00000019 00000099 00000040 
00000057 0000001d 0000009c 00000099 00000080 0000004a 000000b9 000000fe 000000a9 0000002c 
000000fd 00000007 000000cc 0000009d 000000c0 00000027 00000012 0000003f 000000f2 0000006a 
000000ff 0000009a 0000006c 000000f8 000000d2 00000070 000000ee 00000063 00000089 000000e9 
000000a7 0000004f 00000051 000000c3 0000000a 0000006a 00000088 000000b0 000000b1 0000009a 
000000df 0000001c 00000052 000000e0 000000ae 000000fe 00000093 000000d3 000000e3 000000e0 
000000ec 0000001f 000000f2 00000000 000000fa 00000099 000000eb 00000000 00000088 00000000 
00000000 00000000 00000000 00000000 00000000 00000000 00000000 00000000 00000000 00000000 
00000000 00000000 000000fe 00000042 00000000 00000000 00000000 00000000 000000f8 000000cb 
000000a3 000000a9 000000e5 00000043 000000e5 000000d1 0000002d 00000021 0000002b 0000005f 
0000009c 000000a2 0000005d 00000005 00000091 0000005a 000000de 000000ad 00000025 000000c5 
0000005b 00000088 000000a1 00000090 00000030 000000ca 00000064 00000098 00000036 000000c1 
000000eb 000000d0 000000a9 000000f6 00000094 0000008f 000000ea 000000f3 000000a2 00000006 
000000f8 00000007 00000033 00000005 00000027 00000086 00000046 00000068 0000008f 000000df 
00000043 00000016 000000b6 00000064 0000000f 000000aa 000000f0 00000045 00000008 00000097 
000000b4 00000076 000000b1 000000e3 00000009 000000a0 000000ea 00000096 00000064 000000b5 
000000a5 0000002e 0000002e 000000af 00000011 00000059 000000b3 00000036 00000034 000000c7 
00000031 000000c7 00000038 000000bb 0000001c 00000035 00000049 0000000e 00000010 0000005e 
00000098 00000062 0000005d 000000d4 000000cd 00000095 00000028 0000006b 000000b2 0000002f 
00000031 000000e3 000000e6 00000078 000000de 000000c7 000000a9 00000037 000000a6 00000062 
00000010 0000008b 00000048 00000087 0000001d 0000004b 000000fe 00000086 00000028 00000084 
0000009b 0000000b 000000aa 00000092 00000098 0000000c 000000da 00000021 0000001d 00000062 
00000007 000000c1 000000e9 00000081 000000e1 000000bc 000000af 000000a4 000000a9 00000033 
00000000 000000c0 0000003e 000000c2 000000a2 00000037 00000073 0000000f 00000076 00000070 
000000a3 0000001b 00000098 00000081 000000c1 0000007b 00000074 0000005f 00000014 00000007 
000000ae 000000c3 0000009a 0000007d 00000092 000000fd 000000d2 00000056 00000014 000000ad 
000000da 000000df 0000004b 000000fe 000000d3 00000057 000000b6 000000c5 0000006d 000000ec 
000000b0 00000092 0000000f 000000ee 0000008d 00000037 00000033 00000073 0000001f 00000038 
000000cf 000000dd 00000072 00000056 00000052 000000ec 0000008a 00000081 0000009e 000000a5 
0000009a 000000b7 00000053 0000003d 000000b2 0000008c 0000003a 00000088 0000006a 000000b6 
00000079 00000089 00000083 00000009 0000008b 0000006d 0000004a 00000089 0000009e 0000000a 
00000057 000000b0 0000000e 00000012 000000ad 0000000c 00000045 0000009a 000000cd 00000074 
0000006b 000000b4 000000d7 000000c4 00000041 000000e2 000000c5 00000034 0000007d 000000af 
0000001b 000000de 000000f3 000000d8 0000007f 0000005f 00000024 0000009f 000000a0 000000fd 
000000a7 00000000 000000fb 000000ff 0000005a 00000009 0000008b 000000e1 0000009d 000000f5 
00000000 00000000 00000000 00000000 00000000 00000000 00000000 00000000 00000000 00000000 
000000f4 000000fb 000000bf 00000042 000000b7 000000ed 00000000 00000088 0000006b 0000007c 
000000fd 00000017 0000004b 000000ae 0000000a 000000dd 000000fd 00000000 000000d6 0000003c 
000000a0 0000001c 00000035 00000010 00000027 00000001 000000ea 0000009d 00000079 000000d9 
00000058 0000004b 000000a3 0000007e 000000b6 000000e8 00000020 0000004f 000000fb 00000033 
000000fa 0000009c 0000007d 000000fe 00000016 00000081 00000056 000000b0 00000068 000000e8 
00000012 000000e5 0000003f 00000049 000000e2 00000060 000000aa 000000b9 00000021 000000bc 
00000050 00000000 000000c8 000000d8 0000008e 000000f8 0000000a 0000005c 00000089 0000009c 
00000015 00000034 00000092 000000b0 00000043 000000c7 000000c6 000000b0 00000040 000000b7 
00000023 00000031 00000088 0000007b 0000001e 000000a5 00000067 0000009c 0000001d 000000c8 
00000077 00000067 000000ab 000000fa 00000033 000000ad 000000c9 00000085 0000006f 000000df 
00000041 000000ed 000000c2 000000d4 00000024 0000001f 00000035 0000003e 00000064 00000022 
0000002a 000000c5 00000020 00000007 000000fe 000000f7 00000005 00000034 00000068 00000053 
00000028 000000af 00000030 00000032 000000f1 00000068 0000002b 000000a4 0000001e 00000081 
00000006 0000001e 00000020 00000036 0000008d 00000095 00000093 000000b3 000000e0 0000003c 
00000038 0000004b 00000034 0000009e 0000007a 0000009f 00000048 00000049 00000079 00000087 
00000089 000000c4 000000b1 000000d1 0000009c 00000092 00000017 00000025 00000016 000000b2 
00000056 0000000c 00000040 00000011 0000008d 00000065 000000cd 0000002a 00000057 0000000c 
000000a8 00000027 00000024 000000c1 0000004d 000000ad 00000025 000000a6 000000e8 0000009e 
00000097 000000e5 000000bb 000000b1 0000004b 0000005c 00000012 000000c3 000000e4 000000b6 
0000007c 000000f2 00000057 00000012 000000c4 000000b6 00000058 0000002f 00000097 00000090 
000000bf 0000009a 000000dd 0000005a 000000df 00000010 000000da 00000043 0000002d 00000036 
000000b3 000000a3 00000082 000000c9 000000f9 0000005e 000000d0 00000094 00000072 00000032 
0000002d 00000025 00000091 000000aa 0000005a 000000c5 000000db 000000c1 0000002e 00000088 
00000046 00000082 0000000e 000000e4 000000d0 000000b5 000000c5 00000016 0000008d 00000056 
000000bf 000000e1 00000043 0000007f 00000038 000000b4 0000005b 000000df 00000092 000000e7 
000000c1 000000d0 00000002 000000ab 000000d9 000000e8 000000df 0000004c 00000058 00000081 
00000072 000000e8 000000eb 000000f9 00000055 000000bd 00000036 000000de 000000c0 000000e1 
0000002c 00000000 000000e3 00000000 00000098 00000000 00000000 00000072 000000fb 000000ee 
000000eb 0000002b 000000a8 00000027 00000093 000000f5 00000000 00000033 000000df 00000085 
000000a1 000000f2 00000016 0000001c 00000078 00000011 000000eb 0000009c 000000fe 00000032 
000000bc 0000006e 000000d5 00000022 0000000f 00000050 000000d9 000000b7 000000e4 0000000d 
00000062 0000009f 0000002e 00000027 000000f5 000000b2 0000000b 0000005d 00000093 00000008 
00000056 000000a5 0000004a 00000040 000000d7 000000d4 00000024 000000fa 00000099 00000018 
0000008f 00000018 000000ee 000000b2 00000000 000000d5 0000001e 0000002b 0000000a 00000090 
000000c4 00000089 00000063 0000001e 000000f1 000000dc 000000ca 000000fd 000000df 000000bf 
00000066 00000093 00000084 00000085 0000007f 000000fb 000000a1 0000007f 000000fb 00000068 
00000049 00000097 000000e7 000000f5 0000004e 00000055 00000052 0000000c 00000011 00000032 
0000007d 0000009e 00000086 00000007 0000004a 00000048 000000c1 00000075 00000015 0000007a 
00000065 00000093 00000075 000000ae 00000007 000000b7 00000006 000000f1 000000b9 00000077 
0000008b 00000098 0000001a 000000ae 000000cb 0000008b 00000004 000000ef 000000d3 000000fa 
000000d9 00000007 000000de 00000010 00000095 000000ea 00000021 00000054 00000067 000000d6 
00000042 00000039 00000049 000000a5 00000050 00000056 00000000 000000f0 0000007f 00000083 
0000008b 0000008a 0000002c 000000c0 0000005d 0000005b 0000007d 00000059 00000010 00000062 
00000024 000000d8 00000024 0000000b 0000005a 0000007f 00000054 000000da 00000016 000000b7 
00000052 000000f7 000000dd 000000b9 000000f7 000000e5 00000041 0000000e 0000003c 000000bc 
00000069 000000cc 0000008a 0000002a 00000069 00000051 00000062 00000006 000000f4 00000001 
000000b1 000000df 000000ea 0000003d 000000af 00000035 000000f4 00000058 000000dd 0000003b 
00000041 000000fd 0000008e 000000f4 000000ce 00000021 00000085 000000cc 0000000a 000000f7 
00000042 00000044 000000ad 000000a1 0000000f 0000004d 0000008e 00000082 000000b5 0000000c 
000000da 000000db 000000b5 000000b0 0000005a 000000a1 00000052 0000001b 0000008b 000000f1 
0000001c 0000008c 000000f4 000000a5 000000a0 00000012 00000090 000000aa 0000007f 00000052 
00000065 0000008b 00000099 0000000b 000000e0 0000002b 000000f2 000000a9 000000e9 000000db 
0000008a 00000061 000000fd 000000f1 000000d7 0000002c 000000a5 0000001e 00000030 00000032 
0000000a 0000007b 00000070 00000089 00000009 00000012 000000e2 0000001a 00000048 00000025 
00000047 000000ef 000000e5 000000fe 00000065 00000004 000000b2 000000ee 000000fe 000000e2 
00000000 000000fd 00000000 000000a6 000000c1 000000ff 00000000 000000f1 000000fe 000000b2 
000000f6 000000fd 000000f3 000000b1 0000009f 000000f9 00000000 00000016 00000086 00000037 
000000bc 000000cc 0000002f 000000d0 000000d6 0000008d 00000093 0000001e 0000005d 00000009 
000000f3 000000b2 0000005a 0000002a 00000014 000000bf 00000007 00000021 000000b0 0000002b 
000000d6 000000fb 000000bb 000000be 00000004 0000007a 0000008e 0000009f 0000009d 0000006d 
0000001e 000000e2 0000003b 00000069 000000be 0000005d 000000c4 000000b0 000000fd 000000d0 
000000ec 000000e1 000000ad 00000063 000000fd 00000090 00000005 00000077 00000024 000000f5 
00000079 00000021 000000e6 000000f5 00000038 000000f8 000000cb 0000008a 0000004b 000000bc 
00000012 000000ad 0000004f 0000004e 0000006a 0000003c 0000002b 00000064 00000038 00000038 
00000001 00000036 0000007a 000000c1 00000081 00000042 00000021 000000e5 000000dd 000000e5 
000000b8 00000012 00000056 0000009b 00000069 000000a7 000000f1 000000c9 0000008a 000000f0 
00000075 000000bb 00000065 00000090 00000062 000000e5 00000008 000000d4 00000055 00000063 
000000af 00000002 000000c2 00000069 00000007 000000e3 000000d1 00000064 000000b8 0000004f 
0000008a 00000006 0000000c 0000002f 00000049 000000f2 00000098 000000be 0000006e 00000036 
000000ee 00000056 0000004a 0000003a 00000020 00000034 0000007c 000000f1 00000095 000000e4 
00000070 0000008c 000000f4 000000cc 000000ac 00000093 00000081 00000045 00000021 0000001f 
00000065 0000007e 00000047 0000004f 000000bf 00000048 00000058 00000047 00000011 000000ce 
0000000d 0000004f 0000006b 00000063 000000d7 000000cb 000000c3 000000b3 000000cc 000000f2 
00000044 0000001a 0000000d 0000008b 00000097 0000000d 0000003f 00000062 00000062 00000062 
000000ee 00000010 000000a5 00000091 0000002c 0000004a 00000002 0000003a 00000058 000000c4 
0000003c 000000a2 0000009f 000000ae 00000072 00000032 0000008d 000000c5 00000054 0000008a 
00000003 00000018 00000073 000000c7 000000ab 0000000d 000000e7 000000d9 00000044 000000f0 
00000003 000000c6 00000052 000000e7 00000005 0000007a 00000085 000000ba 00000089 000000b5 
00000043 0000009f 0000006b 00000039 00000067 00000077 000000ae 00000026 000000ad 0000001a 
000000a0 00000044 00000018 00000029 000000de 00000065 00000009 00000068 000000e3 00000044 
000000fc 00000002 0000002a 00000080 000000ef 00000080 000000c8 00000026 00000074 00000088 
0000000b 0000009c 000000c3 00000041 00000000 00000096 0000008e 0000009d 00000082 00000014 
000000c1 000000e0 000000e6 000000f5 00000056 000000dc 00000014 0000009b 000000f5 000000b2 
00000000 000000fd 000000ff 00000070 000000b7 000000fe 00000000 00000041 000000fe 000000a4 
000000fb 000000ff 000000f4 000000ac 00000020 000000fb 00000000 0000000e 000000c1 0000007e 
000000a7 000000ab 000000f4 00000006 0000004c 000000b7 000000db 000000d4 00000097 0000006d 
0000003a 0000009d 0000006e 00000013 000000a5 00000030 00000075 00000058 000000ad 00000058 
00000057 0000000d 000000f1 000000aa 000000fd 00000087 0000002c 000000de 00000094 000000de 
00000086 00000099 0000006c 00000064 00000058 00000064 000000ca 000000d8 00000001 000000b0 
00000037 0000007a 0000009f 00000088 0000008a 000000f7 00000012 000000e7 00000019 00000093 
00000078 000000e3 00000080 00000044 000000d9 0000007a 00000038 00000068 000000ab 00000043 
0000002e 0000002e 00000082 00000034 000000a6 000000bd 000000db 0000006d 000000de 00000067 
000000aa 00000094 000000cb 000000c6 000000af 00000062 00000016 0000002e 00000060 0000007a 
00000044 000000e3 00000043 00000028 00000001 00000070 00000091 00000007 000000d5 00000091 
00000039 00000069 00000025 000000bd 00000095 00000028 0000006c 0000001d 00000061 000000d6 
00000000 00000008 0000006f 00000093 000000ca 00000076 000000a3 0000008e 0000005e 0000002b 
000000bc 000000f3 000000c0 0000000a 00000091 000000ac 00000025 000000cd 0000007d 000000db 
00000092 000000c9 000000da 0000009a 00000008 00000052 000000ce 0000009d 0000006a 00000001 
000000d4 000000cb 000000d8 00000035 000000b3 000000a7 00000063 00000057 00000059 000000e7 
0000004a 00000019 0000000b 00000022 000000fc 000000cb 000000e4 0000009c 00000046 000000e4 
00000016 0000001d 00000032 00000079 000000fa 0000008e 00000015 000000a9 00000039 000000a2 
0000007a 00000050 0000006e 0000006e 00000067 000000e0 00000063 0000006c 000000cd 00000076 
000000a6 0000002b 00000050 00000097 00000050 00000027 0000005b 000000df 000000d9 000000bd 
000000dd 00000079 00000028 0000001f 0000005f 000000b9 000000fc 000000b5 000000e4 000000b6 
00000076 0000003b 000000d2 000000ce 0000003d 0000007e 000000d8 000000e7 0000006a 000000cc 
00000038 00000080 00000060 00000089 0000003d 000000a8 000000ce 000000b5 00000013 000000e5 
0000006b 000000b7 000000c0 0000005e 000000b6 00000014 000000e1 00000053 0000005c 00000065 
00000017 000000ec 0000001b 0000005e 0000003d 00000070 00000018 00000053 000000dc 00000092 
00000069 0000002c 000000f8 00000029 000000c3 000000c1 000000f3 00000081 00000057 000000fb 
000000b1 00000037 000000e5 00000070 000000ee 000000b9 00000083 0000000d 00000076 00000017 
000000fe 00000059 000000f2 000000fb 000000bc 000000fd 0000002e 00000058 00000026 0000005a 
00000000 00000000 00000000 000000e8 000000f9 00000000 00000000 0000002b 00000000 000000f6 
00000093 00000008 000000f0 000000ad 00000034 000000d8 000000fe 00000019 000000a6 00000000 
000000eb 000000f2 00000067 00000012 00000084 00000087 000000d3 000000d8 000000fe 000000fa 
00000040 0000002b 000000b2 000000cd 00000084 000000b5 000000e0 0000009c 0000007e 000000e4 
000000a2 0000005c 0000007e 0000000d 000000ef 000000d0 00000029 000000c8 0000007f 00000048 
000000a9 00000064 000000a7 0000002d 0000007b 00000070 00000053 000000ba 0000001d 0000000a 
00000025 00000041 000000d4 000000f9 000000d0 00000008 00000092 00000061 000000f3 0000000d 
000000fe 0000007b 000000c3 0000002d 000000a6 00000030 000000ea 000000e0 0000002c 000000c9 
000000e3 00000082 00000066 000000b7 00000028 0000008e 00000022 000000e6 00000072 0000004d 
0000001f 00000033 0000003b 00000037 0000009b 000000c4 0000001c 000000f3 00000061 0000006c 
00000043 000000cb 00000031 000000d0 000000fa 00000065 000000f9 0000007c 0000007d 000000a3 
000000d7 00000081 00000010 0000004a 00000056 00000024 0000003d 0000002b 0000003f 0000002d 
000000b9 00000022 00000053 00000025 000000f9 00000027 000000e1 00000030 00000030 0000004d 
0000009b 00000014 00000004 0000006e 000000b1 000000a7 000000eb 000000f6 000000a6 000000fe 
000000f7 0000000a 000000ee 000000b5 00000005 0000001a 000000ab 00000096 00000067 00000095 
00000016 00000013 0000008e 00000069 000000e9 000000d2 000000d8 000000db 00000013 0000005e 
00000091 000000b9 000000bf 000000a7 000000f2 000000d9 0000005b 0000002e 000000cb 00000031 
00000075 0000002d 00000098 00000080 0000003e 00000035 000000fd 00000008 000000de 000000f0 
0000001d 0000009a 00000084 0000009a 00000037 000000d6 000000c4 000000a0 0000005c 0000005c 
0000004a 000000ea 000000a9 00000004 00000076 0000009e 000000fe 0000004a 000000e7 000000df 
000000ba 00000076 00000096 00000060 00000049 000000a9 00000009 000000de 000000fb 00000004 
000000d8 00000095 0000005c 000000ef 000000e1 00000055 0000005a 00000040 0000009f 000000db 
0000009b 0000004d 00000026 00000071 0000003a 000000e7 0000001c 0000007f 0000009a 0000002a 
000000be 00000011 00000071 0000003e 00000039 00000016 0000005e 000000d0 0000000b 000000fb 
0000006e 000000b9 000000dd 0000004f 00000001 0000004b 000000ed 0000000b 0000009c 000000ce 
00000087 000000c5 00000048 00000025 00000074 00000007 00000095 000000d1 00000036 00000030 
000000a9 00000015 000000d3 000000c5 00000096 00000068 000000b7 0000006d 000000b3 000000d6 
000000fd 0000007a 0000002b 000000fd 00000093 000000b7 00000064 000000c6 00000009 000000e9 
00000000 00000000 00000000 00000000 00000000 00000000 00000000 00000003 00000000 000000fd 
00000003 000000ff 000000e9 000000d5 00000047 000000c1 000000fc 00000038 000000c7 0000003f 
000000ea 00000001 000000c1 00000020 00000023 000000aa 000000e8 000000ae 0000005d 00000078 
00000004 00000081 000000ca 00000093 000000f6 000000e1 0000002f 000000b2 0000007e 000000ea 
00000069 000000f5 000000d3 00000045 000000fe 0000000b 0000001d 000000c0 00000065 0000003d 
00000068 00000051 0000002d 000000fd 0000007e 0000003d 000000a4 00000034 0000001b 0000006e 
0000007a 000000a7 00000057 0000000c 0000000e 00000039 00000095 00000098 0000000e 000000f7 
000000ac 000000ee 000000ad 00000030 000000a1 000000a7 000000a4 000000a2 0000002d 000000cd 
00000006 000000a4 000000be 000000ee 00000002 000000c9 000000d9 000000e6 000000bb 00000065 
000000bc 0000004e 000000b5 000000ce 00000092 000000f1 00000009 00000062 0000001e 00000067 
00000046 00000011 00000086 000000d9 0000006e 0000006a 0000001b 00000002 00000023 00000032 
000000ff 00000088 00000096 00000085 000000e1 000000de 000000bb 0000005e 00000066 00000021 
000000fc 000000f4 00000012 000000a7 000000ac 00000001 00000028 0000007c 0000001d 000000e9 
0000001c 0000008d 0000008f 00000070 00000019 000000c2 000000b8 00000095 0000001d 00000013 
000000b4 0000004b 0000008c 00000018 000000c5 000000e7 000000d6 0000002e 000000c1 000000ee 
00000032 0000009f 00000017 00000045 00000023 000000b4 00000032 000000b5 0000006b 000000a8 
000000ed 0000003f 000000e5 00000076 00000067 00000049 0000004d 00000073 0000007e 0000008d 
00000076 000000a9 0000000e 0000007b 000000a3 00000074 000000ed 00000001 00000007 0000004d 
00000096 00000004 0000008b 0000005d 000000e7 00000090 000000d9 000000ea 00000069 000000dd 
00000041 00000040 000000fa 00000031 000000e5 0000005b 00000061 000000ab 0000009c 0000006b 
00000091 0000002c 000000cd 000000a0 00000056 000000f6 00000037 00000017 000000c3 0000007c 
0000009d 00000003 0000000b 000000c1 00000045 000000d8 000000b2 00000083 00000097 000000ad 
00000087 00000053 000000ad 0000002d 00000090 00000077 0000009b 0000006d 000000e8 00000055 
000000b6 0000005f 0000001e 00000004 00000055 00000027 000000db 000000c3 00000012 0000009c 
000000bf 00000030 000000eb 0000005f 000000ce 0000000c 000000aa 0000001e 000000fb 0000002b 
00000063 0000000a 00000032 000000db 0000004c 00000024 000000a0 00000032 00000031 00000012 
000000b2 00000069 00000084 000000f5 0000001e 00000067 000000ad 00000085 00000035 00000081 
000000db 0000003f 00000033 000000fb 0000004f 00000071 00000076 000000e3 000000af 000000f3 
00000000 00000001 00000000 00000000 00000000 00000000 00000000 00000000 00000000 00000000 
0000000f 00000000 000000da 000000e8 00000006 000000f6 000000fd 000000da 000000fa 00000064 
000000f7 0000003f 000000cc 000000ed 00000015 000000e5 000000f9 00000008 00000090 00000088 
000000bd 0000005c 00000037 0000009f 00000081 00000082 000000a2 00000065 0000008e 00000078 
000000a4 00000007 000000ea 0000001b 0000002e 0000007d 0000007e 00000093 000000b5 000000df 
000000c0 00000000 0000001b 000000d4 00000005 000000e2 000000c7 0000003b 0000003a 0000002e 
0000000d 0000006b 000000e4 0000006c 000000d3 0000003c 00000083 00000058 00000059 000000f6 
0000001c 00000009 0000007b 00000002 00000033 0000008b 000000c8 000000aa 000000cf 0000005f 
0000002a 0000004e 0000009a 00000059 00000076 00000074 00000031 0000007e 0000006f 0000008b 
0000003d 00000084 0000003f 000000fd 000000bc 00000086 00000081 0000001b 000000c2 00000063 
000000bc 000000a1 000000b8 0000004e 0000007b 00000069 00000039 000000ad 000000ab 00000027 
00000060 00000047 00000053 000000cf 000000d2 000000d4 000000b1 00000002 000000cf 0000000d 
00000085 0000009c 0000000b 0000001a 0000007b 0000006c 000000e3 0000003d 00000041 00000071 
000000a9 00000055 00000003 0000000f 000000d2 0000009a 00000013 00000012 0000005d 00000000 
00000007 000000dd 000000d0 0000006b 00000026 00000073 0000005d 000000aa 000000a0 000000a0 
000000a2 000000ae 0000007e 00000021 00000046 00000020 00000011 0000000e 00000008 00000083 
00000092 00000057 0000002b 000000bf 00000016 00000035 000000ff 000000b6 00000096 00000096 
00000090 00000095 0000000d 000000c3 000000e6 00000048 0000004e 00000090 00000059 000000a8 
0000009b 000000c7 00000058 00000036 00000061 000000db 000000f1 000000cf 0000000b 00000009 
00000082 000000d7 000000d9 000000fe 000000b8 00000003 000000b4 000000bf 00000071 00000033 
00000003 0000006a 0000006a 00000093 00000096 0000001f 00000075 00000070 000000d6 00000026 
00000004 00000053 000000a0 000000d5 00000079 000000a9 0000008c 00000096 000000e4 00000008 
000000fe 000000b1 000000df 000000b2 00000020 0000002f 00000074 00000064 0000001f 00000079 
00000045 00000016 000000e5 0000002b 0000007a 00000021 000000b8 0000001c 00000068 000000c0 
00000069 000000b9 000000e1 0000001b 000000a6 00000044 0000000a 00000040 0000006a 00000044 
000000a7 000000b4 000000bb 00000044 0000006a 000000af 00000058 000000b5 00000034 0000004b 
00000099 00000094 000000b1 000000cc 00000015 00000099 00000079 0000004c 000000f9 000000eb 
000000a1 000000fe 000000d8 00000033 000000a9 00000049 00000064 000000f1 00000040 000000d4 
00000000 00000000 000000fc 00000019 000000fb 00000024 000000f0 000000fb 00000085 00000060 
00000000 00000000 000000d7 00000008 00000090 000000a7 00000000 0000008e 000000e0 0000007e 
000000ef 0000004e 00000012 000000ca 00000011 0000001b 00000000 000000ab 000000d6 0000003c 
0000006d 00000022 000000e6 000000de 00000009 0000001a 000000da 00000070 000000c8 00000076 
000000ee 000000b3 000000b4 00000026 0000005e 000000b3 000000f6 00000066 0000009e 0000007b 
000000b5 0000002f 000000af 0000007c 000000cc 00000063 0000003f 000000c1 00000079 00000047 
000000b5 00000036 00000007 00000088 000000ef 00000016 00000018 0000007f 000000e2 00000008 
00000074 000000ba 000000fa 00000079 00000072 00000089 00000038 00000008 00000077 000000ae 
00000071 0000005a 00000094 0000006e 000000ab 00000070 0000000b 000000aa 000000c0 000000a2 
0000000e 00000016 0000008d 0000002d 000000fb 000000d2 00000034 0000006f 00000046 0000006b 
000000c9 00000068 00000018 00000053 000000a5 000000ec 000000ce 00000018 00000060 0000008d 
000000e3 00000025 00000090 00000072 00000036 00000031 000000c0 0000005d 00000073 00000000 
000000c7 000000ed 00000081 0000004f 000000d8 0000001c 00000004 000000df 000000d2 000000d1 
000000ab 00000043 0000005c 000000c9 000000e9 000000a9 000000b9 00000041 0000005f 00000000 
00000006 00000045 0000009e 000000fb 000000bb 00000074 00000066 00000075 0000007a 00000099 
00000015 000000cc 0000000f 000000d4 0000009d 0000008f 0000004a 00000041 00000070 00000015 
0000004c 00000019 000000be 000000aa 00000030 000000ea 000000fd 00000070 00000046 00000062 
000000f1 0000005c 0000001e 000000e9 00000009 0000001a 000000c0 000000dd 00000078 00000073 
00000015 00000032 000000cb 00000053 0000007a 000000ec 000000d8 0000009a 00000010 000000b2 
00000034 0000004b 000000f5 000000b3 00000091 000000c0 00000089 000000e0 000000e7 0000003a 
000000c9 00000033 0000008b 000000f5 0000004e 00000014 00000036 000000e9 0000006e 00000096 
00000007 0000005f 00000058 00000037 000000ca 000000e6 0000005c 000000bf 00000006 00000036 
000000c4 000000d7 00000048 00000057 0000007d 000000f9 0000007b 00000004 000000e2 000000f0 
00000074 00000092 000000ce 00000070 0000003f 00000006 000000ea 0000002a 00000076 000000ec 
0000008a 00000090 00000081 0000005f 00000055 000000ea 0000007b 000000f0 000000a6 000000b5 
0000005d 0000000f 00000059 0000006d 000000b5 00000084 00000082 000000b4 00000071 000000ee 
000000ae 00000093 00000071 00000079 00000030 000000e4 0000009d 000000dc 000000b5 00000096 
000000ea 00000000 00000023 00000075 0000003c 000000df 000000be 000000fd 000000ad 00000000 
00000000 00000000 000000ff 000000b5 000000ff 0000005b 000000fb 000000ff 000000d8 00000024 
00000000 00000000 00000097 0000006b 00000004 0000003e 00000000 00000000 000000bd 00000000 
000000da 000000e2 000000ab 0000002a 00000053 00000076 000000fc 000000b6 000000bb 0000003b 
0000007f 0000009a 000000b0 00000062 0000005c 000000a9 00000028 000000cd 00000016 000000c7 
00000035 0000002d 0000001a 000000e0 000000ee 000000f4 0000000f 00000099 00000065 000000b3 
000000fb 000000d1 000000a1 000000a6 00000088 00000033 00000023 000000a5 000000a4 000000c6 
0000005e 0000000f 0000002a 00000021 00000095 00000030 00000013 00000060 0000007e 00000091 
0000000a 0000000b 0000003e 00000040 00000017 000000b0 000000d4 000000c7 00000095 00000075 
00000027 000000c0 00000088 00000003 00000002 000000d7 0000006a 00000043 00000086 00000083 
0000004d 0000007f 000000c5 000000f1 00000049 00000057 000000b8 00000075 000000b1 000000ff 
000000de 000000ce 00000062 000000ea 0000001c 0000004d 00000049 000000ae 000000c7 000000e1 
000000b5 000000d4 000000da 000000a7 000000b1 0000000f 000000b7 000000b3 0000008d 0000003d 
00000024 00000019 00000059 00000090 00000024 000000e2 00000089 0000005f 00000000 000000ea 
000000e1 00000094 00000027 00000003 000000bb 00000093 000000ce 00000078 00000004 000000ca 
00000023 00000052 000000b6 00000020 0000007c 000000a7 0000005d 0000008d 000000bd 000000ea 
00000034 0000001c 000000be 00000041 00000067 000000b1 00000066 0000004e 000000cb 0000001c 
00000050 000000c7 000000bf 00000001 000000c6 000000b3 00000018 0000006f 000000b6 00000074 
0000003c 00000076 0000006a 000000ac 0000005f 00000079 0000000f 000000ad 000000e9 000000bd 
0000001a 0000007a 0000002d 000000b6 000000c5 000000e7 0000004b 000000dd 00000045 00000071 
0000005a 000000c9 00000076 000000cc 000000d8 000000ac 00000026 0000003a 000000e3 000000d1 
000000de 00000021 0000004b 00000061 0000003f 00000004 0000005d 00000080 000000a9 0000008b 
0000000b 000000b7 0000002f 0000000a 00000060 00000055 00000078 000000c2 0000001c 000000f9 
000000cf 00000041 00000005 000000d5 000000cf 0000004c 00000038 000000b1 000000fb 00000017 
000000fd 000000b5 0000005c 000000f6 0000006a 000000be 00000054 00000075 000000fe 00000010 
00000069 000000e9 0000002d 00000088 0000000f 000000e3 00000094 000000df 000000c9 000000cd 
000000c2 00000075 0000002d 000000b3 00000089 000000d7 000000ca 00000054 00000080 000000ea 
000000d1 000000dd 000000b3 000000bd 000000b4 000000fc 00000077 000000b5 000000a2 00000065 
000000a9 000000f6 00000006 000000f8 00000059 0000007c 00000055 000000fa 00000074 000000cd 
00000000 00000000 00000000 00000000 00000000 00000000 00000000 00000000 00000000 00000000 
00000000 00000000 000000dd 000000a0 00000000 000000a4 00000000 00000000 000000e0 00000000 
0000009d 00000073 00000099 00000018 00000097 00000046 000000f0 000000f9 0000003f 00000039 
000000be 000000fb 0000004d 000000ef 0000004e 0000009b 000000ce 00000009 00000023 00000029 
0000004a 000000cf 000000a5 00000010 00000096 00000090 000000e5 000000e1 0000004c 000000f9 
00000064 00000055 000000d1 0000008e 0000000f 00000076 0000001a 0000003c 00000069 000000a6 
0000003c 000000ff 0000001d 000000ed 00000083 00000001 000000d6 00000050 000000d8 00000038 
00000098 0000002a 0000008b 00000054 000000dd 000000d7 000000c0 0000003f 00000046 00000065 
000000d0 0000007f 000000b8 000000e8 00000093 00000006 0000009e 000000a7 000000ef 00000044 
00000094 00000090 000000a6 000000f0 00000090 000000bb 00000005 000000d7 00000019 00000006 
000000fd 0000008f 00000033 000000c3 00000054 000000ef 00000091 00000005 00000005 000000a0 
0000000d 000000f1 00000013 000000dc 0000002f 000000e8 000000a5 000000fc 00000070 000000eb 
0000001d 0000000d 00000093 000000f3 0000004e 00000043 00000034 00000027 000000a6 000000be 
00000070 000000f1 00000066 0000000e 00000063 0000004b 00000066 000000d3 00000027 0000001d 
00000038 0000007a 000000d1 000000b4 0000005e 0000003c 000000fe 000000ea 00000059 000000ee 
00000025 00000031 00000052 0000007b 00000045 000000dc 0000004a 00000052 00000097 00000089 
000000b8 00000019 00000010 00000012 00000014 000000c5 00000040 00000087 000000c0 000000ac 
0000007d 00000073 0000000e 000000db 00000038 00000059 000000a4 0000002e 00000042 00000082 
00000045 00000091 0000003c 00000004 000000f2 000000c6 0000002f 000000be 0000009a 000000ab 
000000e0 00000011 000000a0 000000e0 00000065 00000019 000000c7 000000b1 000000ac 000000ec 
00000010 0000000a 000000c4 0000005e 000000a5 0000009e 000000fd 000000d2 0000008b 00000025 
000000bc 00000038 00000012 0000002c 000000fa 000000f9 000000bb 000000e0 0000004a 000000f7 
00000091 0000002e 000000d5 00000027 000000f8 000000f8 00000029 00000068 000000e4 000000df 
00000046 000000bb 00000096 000000e5 00000017 000000e4 000000ba 00000071 00000062 000000fa 
00000072 00000044 0000006f 0000005e 00000090 00000050 00000015 000000bc 000000c9 00000005 
000000fd 000000d0 000000ce 0000009c 000000d9 00000019 0000003c 000000bd 0000005b 00000084 
0000003b 00000097 000000d5 000000bf 000000e3 00000047 000000a0 00000093 0000009d 000000a4 
00000041 000000c5 000000a8 000000ea 000000be 00000072 00000064 00000098 00000048 000000f6 
00000000 00000000 00000000 00000000 00000000 00000000 00000000 00000000 00000000 00000000 
00000000 00000008 00000088 000000c5 00000000 000000d6 00000000 00000000 000000ea 000000ed 
0000004e 00000001 000000bb 0000000b 0000005f 0000000b 000000ef 000000f6 00000046 00000056 
000000e2 000000ca 0000000e 0000002e 00000009 0000000b 00000041 000000f2 0000002d 000000a6 
000000a0 0000007d 00000080 000000cc 000000d0 00000072 000000e1 000000ae 000000ad 00000017 
000000c7 00000018 00000016 0000001c 00000051 00000047 000000e0 000000af 000000b4 00000013 
00000077 000000e9 000000e9 000000e7 0000009f 00000049 00000093 000000d9 00000003 00000078 
000000a5 00000099 000000b8 000000a5 00000030 000000c7 00000022 00000051 0000005b 0000009f 
00000057 0000000f 000000bc 00000035 0000004d 00000065 000000a7 000000a3 0000005f 0000004d 
000000dc 000000ae 000000ff 000000a9 000000a4 000000f5 0000005f 00000033 0000001b 00000087 
00000081 000000b7 0000001f 00000013 000000b4 000000ac 00000033 000000c5 000000ed 00000050 
00000054 00000087 000000f5 0000006a 00000038 000000da 00000078 00000005 000000f9 0000003f 
0000004a 00000022 00000062 0000009e 00000029 0000001c 0000000c 00000010 000000b5 0000007e 
0000009e 000000e6 000000be 0000004d 00000061 000000dc 0000005f 00000075 00000005 00000059 
000000b6 00000030 000000a5 000000a6 00000095 00000033 00000069 00000091 000000c0 0000004d 
000000b1 00000092 0000009d 000000e3 000000cc 0000005e 000000a8 000000b5 000000e4 000000d1 
00000056 000000dc 00000081 00000081 00000001 00000023 00000012 0000006f 000000db 0000004d 
000000c4 0000002f 0000005c 000000f2 0000004f 000000aa 000000d4 00000082 000000b6 000000ba 
000000f8 00000095 00000000 0000000a 000000fe 0000006c 00000078 000000c8 000000c3 000000fb 
000000af 00000094 00000004 000000c3 0000007b 00000080 0000001e 0000001d 000000b9 00000008 
00000092 000000eb 000000ea 00000094 000000c6 00000035 00000022 00000096 00000095 000000be 
000000aa 0000009e 0000006c 0000001e 000000ec 00000038 00000019 00000073 000000bb 000000c3 
000000dd 000000de 0000005f 000000a1 000000d2 00000061 000000fc 00000072 00000059 00000049 
000000ac 00000012 0000000e 00000057 0000009d 00000088 00000008 000000a0 00000005 0000000a 
0000003b 00000092 0000009e 00000093 00000059 00000075 000000a7 00000040 000000b2 0000009c 
00000060 00000096 000000a1 00000019 00000093 0000006d 0000008e 0000003b 000000dc 000000ab 
0000002b 000000ae 00000094 0000000a 0000007a 00000053 00000076 000000b2 00000018 0000007e 
000000f7 0000007d 00000066 000000f3 00000078 0000008f 00000072 00000074 0000007e 000000cc 
000000fd 000000ff 00000000 000000c9 000000b3 000000fb 00000000 00000057 000000f3 00000046 
000000ff 00000003 0000005b 000000f8 000000d1 000000f2 00000000 000000f8 000000fc 000000f7 
00000083 000000fb 00000041 00000050 000000bf 00000032 000000fa 00000005 000000f4 0000000f 
000000de 00000085 0000005b 00000060 000000d3 00000063 00000058 000000cc 0000001a 0000006f 
000000db 00000013 000000d4 00000000 00000033 000000f1 00000055 00000046 000000cd 000000b3 
00000020 00000039 0000007a 000000e7 0000001b 0000004e 000000fd 000000b0 00000025 00000009 
00000058 0000000a 00000055 0000008a 000000a4 00000043 000000bc 000000ab 000000bb 000000b6 
000000c2 00000066 00000026 00000001 00000062 00000061 0000000f 00000056 000000ab 000000dc 
000000e1 00000035 00000063 0000006f 0000008a 000000a2 00000034 0000001b 000000f8 000000a5 
000000e2 0000004f 000000c1 0000002d 00000077 00000046 0000005e 00000063 000000fb 00000067 
000000b4 00000047 000000e6 000000f9 00000006 00000097 00000013 0000008e 00000079 0000006f 
000000f4 00000015 000000b7 0000001c 000000c4 000000fc 000000e6 0000002c 000000b5 0000009f 
000000fb 0000005f 000000eb 0000003b 00000097 00000063 000000a5 000000cd 000000f1 00000024 
00000025 00000046 00000079 00000064 000000c1 0000008c 0000003d 0000000e 0000006e 000000b2 
00000070 00000079 000000cb 00000096 000000df 00000029 00000055 000000f1 00000023 00000046 
00000022 000000f2 0000004d 000000ce 000000b1 00000052 000000e0 0000005e 00000065 0000002c 
000000e7 00000061 00000073 000000ff 00000076 00000001 000000ad 000000ee 00000026 0000000c 
00000036 000000e2 00000018 0000008c 000000b1 000000af 000000d3 000000ff 0000005f 000000b5 
00000034 0000005d 0000008e 0000006b 00000036 00000066 0000003a 00000039 00000059 0000000f 
00000029 00000023 00000028 00000048 00000093 0000006d 000000e5 00000006 00000007 00000050 
000000ff 000000b7 000000e7 0000006d 00000099 000000d3 000000f2 0000006a 00000018 00000015 
0000002b 00000007 00000086 0000007d 0000005b 000000ae 00000020 00000096 000000b2 00000059 
000000f9 000000b5 0000003a 0000008a 00000031 000000f9 0000005c 0000007b 0000006c 00000021 
000000dd 000000ac 0000007f 000000c9 00000045 00000016 000000ed 000000ac 000000f4 00000047 
000000c8 000000b8 0000000b 00000088 00000095 00000045 00000073 0000008c 000000c6 0000004f 
000000d0 0000003b 00000049 000000b9 000000d7 00000021 00000010 000000f8 00000076 00000080 
00000028 00000071 00000099 000000f7 00000093 000000ab 000000e4 000000fe 000000e9 000000d1 
0000001b 000000dc 0000009b 000000b8 000000f8 00000019 0000007d 000000fa 0000003e 000000f2 
00000000 00000003 000000ff 00000000 00000000 00000000 00000000 00000000 000000ff 00000000 
0000005b 00000011 000000c5 000000c8 000000ab 000000e6 000000f7 00000063 000000e2 0000003a 
00000091 000000f1 000000f3 00000000 0000009e 0000008d 000000f0 000000dc 00000059 0000003e 
000000ec 00000044 00000060 00000068 00000057 00000044 000000f1 00000061 0000001d 000000ff 
00000088 0000009a 000000de 000000dc 000000e3 00000087 000000ca 000000f3 0000005f 0000009f 
00000045 000000cd 0000007b 00000000 00000016 000000db 00000002 0000009e 00000088 00000056 
0000008e 0000002c 0000008c 000000f3 00000091 000000f6 00000083 00000081 00000091 000000ab 
0000001c 000000e2 00000023 00000035 00000076 0000001d 0000009b 000000d2 0000001c 0000008d 
00000083 000000a9 00000017 00000002 0000006a 0000008b 00000034 000000f8 0000002c 0000006e 
000000a9 000000f4 00000057 0000006a 00000080 00000040 00000048 00000031 000000ee 0000007a 
000000ce 00000070 00000056 00000053 0000009b 0000008d 0000008b 0000008f 00000000 000000d5 
0000002e 00000072 000000c9 0000002b 000000b1 000000a8 0000004c 0000003d 0000007a 00000010 
000000f2 00000012 00000075 0000001f 00000031 00000005 0000008e 000000ed 00000010 000000a6 
00000065 00000055 00000034 0000000b 000000fc 000000e8 00000035 00000089 000000cd 00000099 
000000ea 000000d1 00000001 000000a5 000000e2 00000093 00000034 00000050 00000045 00000060 
0000003b 000000c8 0000004a 000000a8 000000d1 00000038 000000ee 00000094 0000004d 00000034 
0000007a 000000c4 000000e2 0000002e 000000f4 00000050 000000a0 0000007d 00000051 00000000 
00000092 00000068 00000072 000000c5 000000d2 00000015 00000045 000000a9 00000027 000000d3 
000000b4 0000005f 000000ec 00000074 000000f3 00000045 000000c9 000000c0 00000043 00000087 
000000b9 0000008f 0000008c 00000026 0000001f 000000ec 00000069 0000006a 0000006c 000000ba 
000000a3 00000026 0000009e 000000dd 0000008b 000000da 000000ea 000000b3 0000006a 00000051 
00000046 00000027 000000c7 00000042 00000054 000000e1 00000033 000000c5 0000009d 000000c1 
0000005b 000000c3 000000c5 0000001d 00000017 0000006b 000000cf 000000e8 000000bd 0000000a 
0000005a 000000a1 00000065 000000e3 000000c0 0000002c 000000b9 00000071 00000007 0000009d 
000000af 00000010 000000d8 00000085 00000013 0000001b 00000013 0000006d 00000077 000000c0 
00000080 0000007c 0000007d 00000013 00000070 0000002b 000000c3 00000078 000000b6 000000ea 
000000a3 000000f1 00000093 0000000b 000000e7 0000004f 000000c0 000000a4 0000001e 0000001a 
000000f4 0000006d 00000033 000000de 00000000 000000c8 0000000d 000000ff 000000bf 000000fc 
00000000 00000000 00000000 00000000 00000000 00000000 00000000 00000000 00000000 00000000 
000000ee 00000000 0000001b 0000002a 000000f0 000000bd 000000ea 00000029 000000d4 0000003b 
000000b5 00000058 0000005f 00000042 000000b3 00000027 000000eb 000000a8 0000003a 000000af 
000000c2 0000001e 000000f5 00000043 00000093 0000004b 000000bf 000000dc 0000009f 000000cf 
000000eb 00000033 000000ac 000000db 000000e2 000000bb 0000007e 0000002e 0000007f 00000092 
000000b3 00000001 000000a3 00000090 000000b5 00000000 00000081 0000008f 00000064 000000ef 
0000004f 000000d4 000000d2 00000019 000000fe 000000f1 000000bf 00000084 00000048 00000078 
00000069 0000003b 00000084 000000ac 0000003b 000000de 000000be 000000cd 000000c9 000000bf 
000000a1 000000e7 000000d6 000000a5 000000a0 000000b6 00000063 000000c9 0000006e 0000000e 
0000005b 00000000 00000090 000000f5 00000035 000000c4 00000049 00000048 00000055 00000040 
00000003 00000089 000000b3 00000092 000000f5 00000029 00000041 0000003e 00000097 000000fa 
0000003b 000000e9 000000c9 0000007c 000000e6 0000004a 000000d4 000000cf 000000ea 000000da 
0000001c 000000bc 0000005d 00000048 000000c2 000000b4 0000001d 000000c1 00000032 000000fd 
0000009d 0000004b 0000003c 0000002d 000000a2 00000051 00000080 000000a0 000000f4 000000a6 
000000af 00000015 00000087 000000f3 00000056 000000d9 0000003e 000000d0 000000be 000000c9 
000000d9 000000ca 00000075 0000005f 00000047 000000d8 0000009e 0000004f 000000ba 000000c2 
0000008e 0000002c 0000007a 0000002f 00000080 00000009 0000007a 000000d1 000000de 000000e9 
0000008d 00000027 000000ff 000000c8 00000072 0000008b 000000ad 000000dc 000000a6 00000059 
00000098 000000cb 000000b1 00000017 000000f1 00000016 00000006 0000003d 0000007b 00000010 
00000023 000000eb 00000002 00000058 0000003c 000000e5 0000009e 0000008a 00000076 000000d8 
000000d6 00000060 000000a3 00000073 00000093 000000f5 0000007b 0000006e 00000080 000000c2 
000000af 000000e9 000000cc 0000009e 0000000d 00000082 000000e5 000000aa 00000026 000000b9 
0000001c 000000af 0000000e 000000bc 00000026 000000e7 000000a7 0000006a 000000b3 00000098 
00000033 000000df 000000c9 00000030 000000ce 000000ae 000000c8 0000002e 0000009b 000000e8 
00000048 000000df 000000c6 0000006b 0000001d 0000006a 00000064 0000005a 0000006f 000000f6 
00000014 00000055 0000009d 00000001 00000013 000000a3 00000014 0000003c 000000bd 00000037 
000000d3 0000007a 0000009f 00000023 000000db 000000da 0000006b 000000ca 0000003c 000000cc 
00000000 00000008 000000fb 00000000 000000fe 0000000f 00000000 00000000 000000f1 00000000 
00000000 0000000a 000000fb 000000ff 00000000 00000000 00000000 00000000 000000fe 00000000 
00000000 00000002 00000008 0000003d 00000000 000000db 00000000 000000f9 000000fb 000000eb 
000000fb 00000003 0000009f 000000d9 00000054 000000d3 000000d0 000000f3 000000e4 000000bd 
00000002 00000098 00000088 00000098 0000007f 000000b7 00000024 000000c3 00000069 000000bf 
0000009b 000000d2 00000039 0000008e 00000014 000000f2 000000d5 00000024 000000f3 000000d8 
0000005b 0000003d 00000048 000000d1 00000000 00000010 0000006f 00000020 000000c9 000000e9 
00000027 00000062 0000008e 00000000 000000bf 000000c0 0000009e 00000075 0000001a 0000003d 
000000b2 000000bf 00000047 0000005d 000000c1 0000002f 000000f8 0000007b 00000043 00000041 
00000042 000000ca 0000000b 0000007f 000000cc 00000056 000000cf 0000001c 0000002f 0000002e 
000000b0 00000044 00000083 000000b5 00000037 00000010 0000002c 000000d1 000000e0 000000b1 
00000033 00000024 0000004d 00000095 000000e6 00000019 000000fe 0000002e 000000c1 000000da 
00000070 00000034 0000005f 00000015 00000096 0000008c 00000040 000000be 000000d2 000000f6 
00000020 000000ee 000000ac 000000a5 000000b6 000000c7 000000a5 000000ba 0000008a 0000003c 
000000f3 0000007b 000000d4 000000a5 0000004f 00000020 0000006c 00000095 00000064 00000045 
0000004e 000000d2 0000007d 0000005a 000000ca 0000006d 000000fe 000000fb 00000098 00000040 
00000097 000000f0 000000d5 000000a6 000000e9 0000002a 000000d8 0000008a 00000045 00000043 
00000044 00000017 0000007a 00000006 000000d0 000000b6 00000006 000000d9 0000001e 000000a2 
000000dc 000000a7 00000072 0000002b 0000001e 0000005f 0000001c 00000077 00000011 000000bf 
000000e9 00000027 000000c0 00000038 000000a6 000000e8 00000037 00000011 000000ff 00000023 
00000009 00000099 0000005e 00000056 000000d9 0000003a 00000066 00000052 00000007 000000da 
0000002c 00000083 00000085 00000025 000000ab 000000df 000000d5 0000004e 000000d1 00000029 
000000bd 000000c9 00000067 000000f0 000000fe 00000045 000000c0 0000009f 000000f9 0000008a 
000000bc 000000e0 000000dc 0000009d 000000db 00000077 000000e1 00000056 000000c4 0000009d 
000000bb 000000d5 000000d9 0000007f 00000028 0000002b 000000f9 0000003a 00000091 00000003 
00000050 00000076 000000a4 000000db 00000031 0000007e 00000069 00000073 000000a0 00000091 
00000068 000000b5 00000010 00000074 00000081 00000001 0000007b 0000003e 000000d7 0000004e 
00000032 00000010 000000ff 000000f8 00000056 000000c9 00000004 00000013 00000034 0000005f 
00000000 00000000 00000000 00000000 00000000 00000000 00000000 00000000 00000000 00000000 
00000000 00000009 000000fb 000000ff 00000000 00000000 00000000 00000000 000000fe 00000000 
00000000 00000003 000000ff 00000001 00000000 000000ff 00000000 00000000 00000000 00000000 
000000fa 00000012 00000034 000000ce 000000fc 00000046 000000ff 00000016 0000009a 00000002 
00000060 0000006c 000000a1 0000001f 000000bd 0000007b 000000e2 000000a5 0000002b 0000008b 
00000063 00000074 000000d4 00000031 00000004 000000a4 0000009d 00000053 0000001c 00000070 
000000de 000000e6 000000ce 0000001d 00000002 0000003d 00000048 000000d8 000000f1 00000002 
00000033 00000035 000000a6 0000000b 000000ee 000000ae 000000b1 000000cf 0000007b 0000004f 
000000a9 0000001e 000000ed 000000b3 00000056 000000af 000000b1 000000cf 000000c9 00000049 
00000035 00000020 00000066 0000003f 000000fc 0000004c 00000016 00000063 000000ef 00000057 
00000024 0000008c 00000042 000000cc 0000005b 00000035 00000062 000000db 0000004d 00000027 
0000009b 000000dc 00000087 0000006e 000000d0 00000036 0000008c 0000000d 000000c0 00000036 
00000044 000000a2 000000b4 0000006d 000000db 0000006d 000000c6 000000c5 000000e5 00000042 
00000084 000000ca 0000002e 0000008d 00000099 0000007f 00000063 00000077 0000001d 000000e6 
00000061 000000e3 000000bd 000000d7 0000006d 00000073 00000081 00000038 0000004f 00000042 
00000040 000000fd 00000022 000000fa 000000c7 000000bf 000000bd 00000069 0000002f 000000cb 
000000e7 000000e8 0000001a 00000072 00000078 000000a2 00000024 000000df 00000059 00000031 
000000b6 0000003a 000000ee 0000001f 0000005f 000000ad 0000005f 0000003c 000000ff 0000005c 
00000030 000000e2 0000001d 0000001d 00000010 00000035 0000003a 00000080 0000002d 00000089 
00000072 000000ea 0000007d 00000090 0000003e 0000009c 0000009b 0000008f 00000075 0000001f 
00000039 00000065 000000e8 000000fc 0000008c 000000ec 000000be 00000048 00000015 000000ea 
000000d4 00000089 0000003d 00000066 000000d0 000000fe 0000000a 00000085 000000bb 000000eb 
000000ac 00000093 00000068 0000003f 000000c9 000000ff 00000053 00000018 000000d0 00000018 
0000003c 000000c8 000000d3 0000007c 00000081 000000a5 0000008b 000000c0 000000ab 00000090 
0000006d 0000008d 00000052 000000b3 000000a3 0000001b 00000073 0000001b 00000015 0000009e 
00000026 00000078 00000022 0000008a 0000000f 000000e0 00000075 00000042 0000003f 000000d3 
000000c8 000000e4 00000024 0000004e 000000de 000000ba 0000002e 00000054 000000b2 00000018 
000000f6 00000086 00000001 0000002a 00000000 0000000b 000000f5 000000bd 0000005b 00000042 
00000001 00000000 00000000 00000000 00000000 00000000 00000000 00000000 00000000 00000000 
00000000 00000000 00000000 00000000 00000000 00000000 00000000 00000000 00000000 00000000 
00000000 00000000 00000000 00000000 00000000 00000000 00000000 00000000 00000000 00000000 
000000ff 000000fe 0000008b 000000d2 0000000a 0000003f 000000fe 0000003e 00000057 000000cb 
00000090 000000a4 000000d4 00000005 000000bd 000000dc 000000f2 00000038 00000098 0000009c 
0000003b 000000ec 00000013 0000002b 00000089 0000009b 00000088 00000042 00000027 00000089 
00000012 000000ee 0000006a 00000098 0000007b 00000060 000000f1 00000018 000000e5 00000035 
000000d6 00000096 000000de 000000f2 0000006d 00000096 000000db 000000db 0000002d 000000df 
000000ff 0000009a 00000016 0000005a 0000006c 000000bd 00000007 000000d5 00000013 000000de 
000000f7 000000c7 0000007e 00000089 000000ef 0000000a 0000002b 00000033 00000029 000000b8 
0000000a 00000049 0000008d 000000a3 00000028 000000f6 00000036 000000b7 00000060 00000014 
0000005a 000000ca 00000065 000000f0 000000db 00000022 00000055 0000008b 000000e5 000000c4 
00000030 00000052 0000009d 0000006e 0000003c 0000009c 00000082 00000071 000000b5 000000f2 
000000a3 00000047 000000de 00000067 000000c2 0000002b 0000005a 0000007b 00000009 00000005 
00000006 000000df 0000006e 00000041 00000072 0000000d 00000043 000000f6 0000007a 00000038 
000000e3 00000081 000000ac 00000051 000000a4 00000041 0000005e 00000024 00000009 00000031 
00000048 00000047 000000cd 00000012 00000011 000000f8 00000086 00000068 000000c7 000000d2 
000000d9 000000b9 000000fc 000000c4 000000c1 000000d6 000000cc 000000b5 000000f5 0000009f 
000000ea 000000ba 000000b5 00000015 00000092 00000034 00000019 0000008c 00000047 000000e1 
000000eb 0000004f 000000ed 00000087 0000004d 0000009c 000000b5 00000073 0000009e 000000a2 
000000f7 00000009 00000099 00000045 0000008d 0000004f 000000ce 000000e7 0000005c 00000035 
00000005 0000004a 00000080 00000014 0000003d 000000e4 000000e6 000000be 000000d2 00000084 
000000ca 000000d5 0000002b 00000096 000000b0 0000007d 00000027 000000b5 00000085 00000010 
000000b7 00000011 00000062 00000059 00000065 000000a9 0000002a 0000006f 000000d5 000000fe 
000000a1 000000be 00000081 00000033 0000001d 0000003a 00000036 0000002a 00000014 00000022 
000000f1 00000090 00000042 0000004f 000000ce 000000e8 0000008a 00000060 000000c2 0000008e 
0000003c 0000000d 00000049 00000029 00000044 00000091 00000004 00000074 00000039 000000c0 
000000f8 000000c7 00000049 00000018 00000010 00000097 000000fe 000000d0 00000046 00000026 
00000000 00000000 00000000 00000000 00000000 00000000 00000000 00000000 00000000 00000000 
00000000 00000000 00000000 00000000 00000000 00000000 00000000 00000000 00000000 00000000 
00000000 00000000 00000000 00000000 00000000 00000000 00000000 00000000 00000000 00000000 
000000fc 00000000 000000f4 000000ee 00000000 000000fb 00000000 00000054 000000fc 000000da 
000000f8 000000eb 000000bc 00000058 000000ea 000000df 00000000 00000042 00000088 00000076 
000000ab 000000d4 0000000e 0000004e 0000002e 000000f5 000000dd 000000c4 00000028 0000003b 
00000080 0000005b 00000075 0000002e 00000086 00000083 00000023 00000039 000000a6 00000076 
00000052 000000d9 000000fd 00000084 000000bc 000000ea 00000046 00000095 00000016 000000bd 
000000f9 000000b3 000000f2 00000007 00000041 00000008 000000f2 00000046 000000b8 00000022 
000000bf 000000e2 000000b7 00000052 000000f0 00000082 00000079 0000007b 00000000 000000ed 
00000075 000000a1 000000b3 000000a1 000000e7 00000029 00000046 0000004a 000000f0 00000006 
0000005e 000000d5 000000e7 00000042 000000d2 0000009b 000000da 00000003 000000b1 000000a8 
0000007b 0000008a 00000050 00000078 00000051 000000a4 000000d0 0000002f 000000b1 0000008c 
0000000d 000000dd 00000034 00000096 0000002d 000000cb 0000004a 000000e4 0000002e 000000f7 
000000c6 000000f7 000000d3 000000ad 0000009e 000000e5 00000030 00000027 00000094 00000054 
000000f0 000000e8 000000f9 0000007a 00000004 000000fc 00000092 000000a6 00000095 000000e8 
0000002a 00000018 00000031 000000b4 0000002d 00000088 000000f2 00000029 000000fd 0000000b 
0000004d 000000aa 0000007f 00000099 00000029 000000f8 00000004 00000073 0000000a 00000050 
000000e2 000000b2 000000b7 000000c7 000000de 000000bf 00000024 0000002b 00000010 000000f3 
000000b4 0000001e 000000fa 00000072 00000025 00000092 00000017 0000000e 0000006d 00000079 
00000063 000000fc 00000019 00000048 00000099 000000fd 000000b0 000000a9 0000002c 00000023 
0000002e 000000fe 00000083 000000da 000000d0 000000de 0000002d 000000db 000000e5 000000de 
000000ca 000000d2 00000002 0000003e 0000008f 000000f6 000000c5 0000004c 00000006 00000088 
00000002 0000000f 000000e7 0000007d 000000d9 000000f1 0000000f 00000092 00000047 000000da 
0000001c 00000066 000000ad 0000008b 00000083 00000002 00000036 00000088 0000000a 000000f9 
0000006e 00000007 00000003 0000000b 0000009b 000000fb 000000f4 000000f8 00000050 000000ae 
00000000 00000015 00000073 000000e5 00000075 000000b5 00000000 000000cd 00000027 00000078 
00000000 000000bc 00000045 00000000 000000fe 00000073 00000000 00000000 0000000a 00000086 
00000000 00000000 00000000 00000000 00000000 00000000 00000000 00000000 00000000 00000000 
00000000 00000000 00000000 00000000 00000000 00000000 00000000 00000000 00000000 00000000 
00000000 00000000 00000000 00000000 00000000 00000000 00000000 00000000 00000000 00000000 
00000000 00000000 00000000 00000063 000000fd 00000000 00000000 00000086 000000ea 00000031 
000000ff 000000a4 00000069 0000008b 00000000 0000000c 00000000 00000009 000000df 00000077 
000000c5 00000006 000000d5 000000b3 0000004f 000000ed 000000fc 00000021 000000ac 000000aa 
0000004d 00000089 00000021 000000f2 000000bd 00000047 000000e5 0000006e 0000006e 00000052 
0000002c 00000090 000000c4 000000ae 00000031 00000005 00000081 000000e2 000000a8 00000092 
000000bf 000000c0 0000004d 0000004b 00000084 0000008c 0000004a 000000df 00000084 0000002c 
0000001e 00000074 00000093 0000007c 0000001d 00000076 000000fe 00000046 000000ba 000000d1 
00000052 0000001f 00000041 0000005b 00000052 00000072 00000037 00000090 000000e5 00000082 
000000be 0000006f 0000002b 000000e8 000000b8 00000011 000000af 000000f6 00000058 000000fb 
00000098 00000092 00000089 000000dd 00000018 000000d5 000000f5 00000086 00000014 000000f3 
00000057 000000b4 000000cd 00000015 00000013 00000017 000000ff 00000066 000000b1 000000d4 
00000023 00000043 000000bb 00000026 00000090 00000025 00000088 00000016 00000031 00000036 
000000f9 000000d6 000000cd 0000009c 00000032 0000006b 000000bb 00000030 00000048 000000f8 
00000038 00000095 0000004a 000000d1 00000063 000000f5 00000072 0000004e 0000007c 00000083 
0000001e 000000b7 000000e8 000000c4 000000c0 000000c9 00000074 00000023 000000fc 00000060 
00000086 000000a7 000000f3 00000082 000000b0 0000003e 000000a0 000000ec 0000004d 00000098 
00000070 00000074 00000089 000000bc 00000076 00000069 00000069 000000ac 0000007e 00000063 
000000f1 0000000e 00000023 00000085 0000007e 00000063 0000007a 00000039 000000ab 00000019 
000000d0 000000a8 000000a1 0000005b 000000e3 000000e5 0000000b 000000ab 0000003d 000000d2 
0000002e 00000067 000000c4 000000f7 00000043 0000003f 0000007e 00000012 0000001d 00000083 
000000fb 00000016 000000c5 0000005a 000000fe 00000014 000000c0 00000058 000000aa 000000ff 
0000002c 00000005 000000be 00000053 0000009d 000000d1 000000e4 000000c5 0000007b 0000002d 
000000b6 000000d4 00000088 000000cc 000000ef 000000dd 000000fd 000000ad 000000ed 000000c3 
00000000 00000000 0000005c 000000fd 000000ec 000000fe 00000000 000000b8 0000003c 000000cc 
00000000 00000000 00000099 00000000 000000fe 00000000 00000000 00000000 0000002b 00000040 
00000000 00000000 00000000 00000000 00000000 00000000 00000000 00000000 00000000 00000000 
00000000 00000000 00000000 00000000 00000000 00000000 00000000 00000000 00000000 00000000 
00000000 00000000 00000000 00000000 00000000 00000000 00000000 00000000 00000000 00000000 
00000000 00000000 00000000 00000000 00000000 00000000 00000000 00000000 00000000 00000000 
00000000 000000fd 000000ff 000000f3 000000f6 00000000 00000000 000000ed 000000ef 00000041 
00000000 000000de 000000f5 0000007d 0000004d 000000f6 00000000 00000053 00000005 0000001a 
00000055 000000c6 000000e2 00000094 00000021 000000c1 00000000 0000005e 00000069 000000c9 
000000ee 00000029 0000005c 000000f5 000000bd 0000000f 000000f6 00000055 000000c9 000000bb 
00000079 00000091 000000b4 00000095 000000f7 00000091 000000e5 000000de 000000e4 00000082 
0000004f 00000078 00000079 000000cd 000000f1 000000df 000000c6 000000c6 0000004a 0000004d 
0000001c 000000a3 000000eb 00000052 000000fb 0000001b 000000b2 0000006a 00000019 000000be 
00000072 00000047 00000008 00000006 000000df 0000008c 0000007a 00000095 00000008 000000b8 
000000f4 00000026 000000b6 000000d2 00000083 000000aa 0000002c 0000008f 000000d1 000000a6 
000000d3 000000df 00000097 000000ad 0000002c 00000043 00000023 00000016 000000ef 00000072 
0000009d 0000004c 00000021 0000001e 0000000c 000000a0 000000f4 000000ca 000000b2 000000bb 
00000001 000000a1 000000d0 000000d3 000000bd 000000d1 000000a5 00000095 000000ae 00000047 
00000096 00000010 000000aa 0000005e 000000ca 00000090 00000062 0000007b 0000004f 000000cd 
00000070 00000040 00000068 0000000e 00000042 00000031 00000068 000000f5 00000048 000000c2 
000000cc 00000015 00000025 0000006d 00000011 00000054 000000bb 00000013 00000055 00000007 
0000003e 00000093 00000091 00000049 0000004e 0000004e 000000ae 000000a0 0000005b 00000012 
000000c4 00000001 00000049 000000d1 00000035 000000b3 000000eb 0000005b 000000c4 00000031 
00000060 000000ca 00000000 0000008f 00000076 000000b9 000000eb 000000e2 00000054 000000f9 
00000027 00000068 0000006b 000000be 000000db 0000000f 000000cd 000000a7 000000ed 000000fd 
0000004b 000000bb 000000bb 0000003b 000000d4 000000cc 000000f0 00000075 00000059 000000a7 
000000b2 000000d5 000000f5 000000e1 00000073 000000ed 00000000 0000001f 000000fd 0000002a 
00000000 00000000 00000000 00000000 0000008b 000000e0 00000000 000000f9 00000000 0000009f 
00000000 00000000 00000000 00000000 00000000 00000000 00000000 00000000 00000000 00000000 
00000000 00000000 00000000 00000000 00000000 00000000 00000000 00000000 00000000 00000000 
00000000 00000000 00000000 00000000 00000000 00000000 00000000 00000000 00000000 00000000 
00000000 00000000 00000000 00000000 00000000 00000000 00000000 00000000 00000000 00000000 
00000000 00000000 00000000 00000000 00000000 00000000 00000000 00000000 00000000 00000000 
00000000 00000000 00000000 00000000 00000000 00000000 00000000 00000000 00000000 00000000 
00000000 00000000 00000000 00000000 00000000 00000000 00000000 00000000 00000000 00000000 
00000000 00000000 00000000 00000000 00000000 00000000 00000000 00000000 00000000 00000000 
00000000 00000000 00000000 00000000 00000000 00000000 00000000 000000c0 00000000 00000041 
000000fe 00000000 00000000 000000f8 000000de 00000000 00000000 000000f0 000000fe 00000041 
000000f3 000000fe 000000fa 000000e4 0000007c 000000f6 000000f9 000000d6 000000f1 00000003 
000000a6 000000b7 000000d9 0000007d 000000a7 000000d5 000000ed 0000009d 00000077 000000d3 
000000cf 0000004e 000000b4 0000006b 000000b5 000000b5 000000dd 000000f2 0000000d 00000081 
0000008b 00000046 00000084 00000082 0000004c 000000e9 000000ef 000000c6 000000d8 0000006a 
000000cf 0000009a 0000001b 00000093 000000c3 00000092 000000f7 000000fd 00000022 0000007f 
000000b9 00000037 000000ce 0000005b 00000003 0000000b 000000f4 000000c2 00000033 000000f5 
000000d5 000000b8 000000e2 0000000b 00000044 000000fa 000000fd 000000a1 000000f6 000000b6 
000000b6 000000da 000000f5 000000ed 00000064 0000009b 000000fe 00000096 0000005a 000000a3 
0000009a 000000fc 000000f3 000000cf 0000005e 00000086 000000f6 000000cc 000000a5 00000060 
000000c8 000000fc 000000f5 000000aa 0000004c 000000b1 000000f8 000000ab 000000e2 0000001f 
000000ef 00000010 000000ed 00000025 00000023 000000ab 000000fe 00000039 000000e3 0000000b 
000000eb 000000f8 000000ea 000000c8 00000065 00000068 000000fa 000000f2 000000a7 0000000f 
000000ff 000000f1 000000f5 000000da 0000004f 0000000d 00000000 000000d6 00000056 000000bc 
00000000 000000fe 00000065 000000c0 00000075 0000000b 000000ff 000000f3 00000080 000000ee 
000000a2 00000000 000000ea 000000e9 000000fa 000000b2 000000de 00000060 0000006f 00000035 
0000005c 00000000 00000036 000000d4 00000076 00000077 000000e9 000000a0 000000c8 0000005f 
00000041 00000000 000000de 00000000 000000b1 000000c9 00000000 000000b5 000000bb 000000fa 
00000000 00000000 00000000 00000000 00000000 00000000 00000000 00000000 00000000 00000000 
00000000 00000000 00000000 00000000 00000000 00000000 00000000 00000000 00000000 00000000 
00000000 00000000 00000000 00000000 00000000 00000000 00000000 00000000 00000000 00000000 
00000000 00000000 00000000 00000000 00000000 00000000 00000000 00000000 00000000 00000000 
