0 0 0 0 0 0 0 0 0 0 
0 0 0 0 0 0 0 0 0 0 
0 0 0 0 0 0 0 0 0 0 
0 0 0 0 0 0 0 0 0 0 
0 0 0 0 0 0 0 0 0 0 
0 0 0 0 0 0 0 0 0 0 
0 0 0 0 0 0 0 0 0 0 
0 0 0 0 0 0 0 0 0 0 
0 0 0 0 0 0 0 0 0 0 
0 0 0 0 0 0 0 0 0 0 
0 0 0 0 0 0 0 0 0 0 
0 0 0 0 0 0 0 0 0 0 
0 0 0 0 0 0 0 0 0 0 
0 0 3 0 0 0 fffd 0 0 0 
0 0 3 0 0 0 fffd 0 0 0 
0 0 0 0 0 0 0 0 0 0 
0 0 0 0 0 0 0 0 0 0 
0 0 0 0 0 0 0 0 0 0 
0 0 0 0 0 0 0 0 0 0 
0 0 0 0 0 0 0 0 0 0 
0 0 0 0 0 0 0 0 0 0 
0 0 0 0 0 0 0 0 0 0 
0 0 0 0 0 0 0 0 0 0 
0 0 0 0 0 0 0 0 0 0 
0 0 0 0 0 0 0 0 0 0 
0 0 0 0 0 0 0 0 0 0 
0 0 0 0 0 0 0 0 0 0 
0 0 0 0 0 0 0 0 0 0 
0 0 0 0 0 0 0 0 0 0 
0 0 0 0 0 0 0 0 0 0 
0 0 0 0 0 0 0 0 0 0 
0 0 0 0 0 0 0 0 0 0 
0 0 0 0 0 0 0 0 0 0 
0 0 4c8 0 ffae 0 fb8a 0 0 0 
0 0 1da2 0 e823 0 fa48 0 0 fff5 
0 ffff 1267 0 db6d 0 1302 ff50 0 ffdc 
ffff ffcd 13f6 fff8 edc5 fffe 3b9 fb57 fff7 ff7f 
ffff ffd9 75c fffd f6d2 ffff 35e fed6 fff8 ffd5 
fff9 ffed fcc2 fffd fd80 fffc 606 fffd fff8 ffe9 
1f30 ffff e946 ffdd f65e fffa a5e fa5f ffe4 fcb6 
3ebc ff1d ef00 f9ed e8a7 ffb5 6f8 f218 ff8c f845 
19ca ffd3 138 ff40 d90e ffba 1535 fb39 ffa7 fd11 
ff58 14d1 fe81 fef1 326 ffca ed00 fff9 ff07 ff76 
2ef7 20fa 1238 febc a23a ffb6 16ea f992 ff63 ed4e 
7644 e807 2ca0 ffa5 ac9a fef3 f83 ee76 fe31 cdbb 
30d9 f855 57a ff5f da5a feab 1c05 f7a9 fdd1 e776 
fd88 ff87 fcef ffce fd28 fb18 fb6 fffe fe82 ffc1 
fff0 0 fcbd fffd f272 fb82 1591 0 ffe0 fff5 
ffef 0 fe53 fffa f78a fcf5 d5b 0 fff3 fffb 
fffc 0 ff85 ffff ffae ff03 1d2 0 0 0 
0 0 fffc 0 faf2 0 51d 0 fffe fff9 
0 0 fffc 0 f920 0 6f2 0 fffd fff6 
0 0 0 0 0 0 0 0 0 0 
0 0 0 0 0 0 0 0 0 0 
0 0 0 0 0 0 0 0 0 0 
0 0 0 0 0 0 0 0 0 0 
0 0 0 0 0 0 0 0 0 0 
0 0 0 0 0 0 0 0 0 0 
0 0 0 0 0 0 0 0 0 0 
fffb 0 0 0 0 ffdd 2a 0 0 0 
0 0 ffdf 0 ff6c fffc be 0 fffe 0 
0 ffff 809 fe10 ff01 fffc faef 0 0 0 
fce4 fff9 1ea1 fba5 fc57 fff8 ece7 ffed fff7 ffc8 
ffd5 ffdc 1b2 fb64 e41b fff3 2204 fe95 ffde feb8 
ff64 f61d 142f f9fa d624 ffc8 2c71 fb15 ffb5 ff32 
fef4 eadb 1a85 fbe9 d9cb feb7 2cbf fcda fe30 ff7a 
fc91 ed37 33c9 ca2 b1a6 e9d8 43a6 ff26 f883 ff01 
e3d3 3f45 24ca 10c0 de0c c6a4 1d62 f94f efc7 fc38 
e718 264f 274a 2965 ddaa c9be 2678 f095 ec2a f74c 
efa8 4c6e f803 ef75 1987 ddb9 821 f981 e7ff fb93 
ba15 f164 2614 f1a 459f cacb 29d0 fd37 ea88 fd61 
cfe2 17b7 b07 ffdc ef46 2ded fcb fcfd e5d9 fdb0 
f301 26ed 13d0 584 801 ebeb 8ee fc1f df51 f475 
dfed 243a f5e8 f95d 3 1bd7 1016 ff34 e42a fd46 
f4cf 1b95 1569 f8ad c663 b2 42f ff9f 19e4 fcc0 
f9b6 efcb 1170 f0a5 dcdf 3759 23f0 ffcf dedb fd9b 
f3e7 fb35 a03 f0b4 d87c 2168 20c4 ffb9 fc4d ff81 
f840 ff28 1544 fa46 f161 e012 2d4c ff97 fb16 ffa6 
fb60 ff73 fab2 fcbb 8c6 250 5b6 ffc6 fd4e ffe0 
fd05 ffd9 de5 ff2f de61 ed33 3710 0 f376 fff8 
fff8 ffff 2241 ffd9 fd7e f234 f590 0 f8b1 0 
0 0 129e 0 ff2f f8a3 f6d2 0 febf 0 
0 0 0 0 0 0 0 0 0 0 
0 0 0 0 0 0 0 0 0 0 
0 0 0 0 0 0 0 0 0 0 
0 0 0 0 0 0 0 0 0 0 
0 0 1 0 0 0 0 0 0 0 
fef0 0 ffd7 fffe ffed 215 ff3d 0 0 0 
f36e f54a fd9a e4a8 fece 41e8 f52d ffc2 ffbe ffa7 
12ab f55e eb60 e9a fbc6 64c fd69 ffc4 ff17 ffa9 
fcec f940 fd14 f4b2 f49a f879 397e ff7b fdc7 f43d 
c32c f5da 211c 140b 303c e4ca 1ae0 f3e9 f7cf f635 
be4 e3bd fe51 44bf f953 feff 174f db43 e519 fd53 
875 f3d8 3506 fb3c f1e0 d2f bc0 eb1f e2ba facb 
f623 f8a3 fe94 1e20 ee25 1e6b 5ad e0bd d71 f41c 
2d8b d415 1131 698 3ec 5c7 17e2 c732 1636 e798 
ee04 1fb8 df4 2718 edd6 18e2 b04 e8e4 ed9d d4fb 
2df6 1858 2caa d9f a339 eb2 156f c270 23e9 d1b3 
1aaf e819 787 1391 113d 1381 1293 d3cb 327 d3d9 
de 18df bc1 1502 f866 7c5 650 e87d 385 d301 
13ca cb 10a7 14c3 e800 d07 b69 eee3 9bb ccf2 
f90f 1908 44a f903 20d0 ff64 f84c f5f5 feaa e380 
76 c914 2af 14ab dc4e 1476 766 f52c 92f 2896 
e67c 21c9 fc4c fc48 2181 f6b4 80e f62d f597 f322 
2107 ed05 f6cc 20d7 ddef 1792 fbaf f4e9 8b f3ac 
e59e fc4c 15e1 e361 f31 ece d01 f0fc d96 fb43 
9f3 fc00 fb0e 1df4 f6af d75 fb0f f828 eaf2 fec1 
fbd2 f20a e6ce fcff f7db dfcf 1c31 fff9 3aaa ffdc 
f33d e716 195f 1014 e7c2 24fc 180b fffe d77d fff8 
4c2 f71a 11e1 fcde fe39 331a cc19 0 f7fc 0 
ffd1 f0ad fffd 0 feb6 fd57 2fd3 0 e3a7 0 
0 0 0 0 0 0 0 0 0 0 
0 0 0 0 0 0 0 0 0 0 
0 0 fffd 6 0 fffd 0 0 0 0 
0 0 ff55 ee 0 fe69 fffe 0 159 ffff 
fe81 facf f5da f6be ff84 4e0 fca1 196c ffd0 ffd9 
fb6a f2e0 e4ea aaa f9fe f756 8c2 2e10 fadb ff22 
ecde 43bc bd 20ca 786 d7c8 2090 be71 f44a fb46 
b593 646 4458 1ac7 f48d 1864 1183 bbff f800 1295 
2228 cbd5 e624 e5df 1f9f faa3 ee41 f6be ea07 5cba 
ece7 2de4 d48 ba5 ef86 e1ea c2f 8e 287 eb93 
d01 1570 f6cb fe86 870 9b7 ec98 3183 3fe b3fc 
f82f 172e 22fa 1d82 f79f 575 c9f 8c25 804 1248 
1524 959 1e9 8cd e3 822 fdca d0ab 205 fd4d 
fa32 f9e1 a52 fea5 ec0f fecd faff 25a4 a28 ed4f 
fc77 53a fa92 a59 f10 fcd8 fa4e f58d f5dc 7c5 
f7fd 859 f1a 6fa f082 34 fd5f f81f 1131 f231 
bc5 1a7 331 ff0a f7ab 86a f835 ed9d 7e 9f3 
fc07 fe23 a5f 1044 1be 661 d71 e6dd 86d e658 
6cc f84 2d7 12c ff75 5ec 4d3 ce08 8e4 48a 
ec8 fab0 558 cf4 fbf3 a9c 5c2 fb7e 661 d60b 
fc87 1920 587 58d fedd a1d 123 d968 90f f2b0 
9fe fdfe 1ac 4ff 2021 fd69 55e d083 7c6 f628 
eeb4 9be fbbe fae9 588 920 6ec 2c91 20d ccb3 
14c9 f67c eb81 fb5 284c 3fc 12f e423 525 e2c4 
f901 1043 e6b1 e4a8 ffd4 1085 24ed faa0 ff0f fc70 
da1 b377 b6c2 57ee 28e9 18e3 de19 ff95 1163 ff5a 
1f0 b2f7 1c24 f7cd 11b7 1ab3 f23b fff0 18d3 ffc2 
fd72 fcbe fcaa ffff eada c97 f7a4 0 1a4d ffc9 
fff8 ff10 fcb3 0 ff75 fb31 1529 0 f485 fff4 
0 0 0 0 0 0 0 0 0 0 
0 0 0 0 0 0 0 0 0 0 
fedc f8f2 371 535 19 ff8d 25 ffe2 ffe0 0 
f3b1 21d bac e2ec cd9 2414 e23a 1073 f827 ffd9 
9df f914 2093 2931 e5f d0e9 11bd c75f fb92 ff52 
8bd2 6a88 79a 1566 2448 ead8 c2a3 4895 d987 f8c6 
4a3d 1099 fe50 f951 738 e3cf f778 ed5c f861 e54f 
e4f5 b952 4c 1ae4 fe0f f1f f707 229f 1c30 386 
ffa dba7 add f943 bb2 302 8ed c00 f5a7 f6f5 
a9 f736 f88d 879 f038 2f7 571 6f9 5a8 1d8 
10d6 df51 91 febd d6d ffdd f86 3dc fdd7 f209 
fd39 eef4 2ea 3b5 22b 396 ef40 33 5c1 123e 
100 f3c4 ff34 fe58 e30 fb0f f2fc 11ad ffe7 ffe3 
c14 228 809 756 f15e 11c fc7f e65a 4ca 847 
25 f447 302 21 234 238 4ef b63 f f3a1 
fa16 6a1 fa39 269 c11 f7c4 f7ec f8f2 24b baa 
7c7 fa5f b0a 734 f8a2 4d5 f46a 864 292 eec4 
f9d4 f9a3 4c6 fa31 7f4 404 53 f791 724 292 
c56 39f 3df 58b 166 94f fc2a e9da fee2 f706 
3ca ef53 fb43 3e0 7c6 f7de bfd 1d3 ff5a f0 
a1 619 8d1 116 fc6c e39 f982 eaab 5df faaf 
fc5a 3c4 ff8b fa57 634 1dc 1776 f682 ff88 f071 
150 b99 bcb 2ac fb38 8d4 e69a f550 994 fb15 
ff11 22d4 288c 7df 14e1 9c4 669 c01c fea7 c9de 
5b7 25fa d288 c0fe 535 dd3 367a fde6 ede ea82 
1f5 b8a3 20b7 fbe5 960 169e e0 ffa8 f75 f8d0 
ef9b fc07 f34f ff81 f94b d98 1c23 ffed ff05 ff98 
fba1 fea9 fb21 0 ffda ffbb 1fa5 0 eb60 0 
0 0 0 0 0 0 0 0 0 0 
0 0 fff1 181 0 fffd 0 fffe ffd2 fec3 
fb91 f27f eca1 17bb fd6b 95f 168 d6f fb95 fc5e 
fe76 2a0a f7e1 8d4 1289 dd05 f117 106a e753 fe6a 
8bd d22d f40a fdab 892 8d4 178c 683 3ec 0 
ffb9 e6c8 fa53 fdd0 205f 1890 1893 1c22 fde1 b5d8 
f5fc 439f de e2b e577 ff4a dee2 67f f25a fae2 
10d ccb7 10a3 4a2 fe5a 8a5 31cb ead5 ad5 ee83 
29a 129 fd87 fcf9 d1b f31e e03e 1d1f fc03 823 
e4ab fbaf 352 7e2 43e 3a3 fbe6 8d0 ff29 8b0 
52c a3a b48 9b8 f33c 268 f0bd fc80 fef2 f9c7 
f361 7fc f973 fecc f237 fc4c 693 1697 fdc8 2f0 
fa75 f3c6 47c 405 f8dd 5f9 fc7e b4 a35 306 
6ef fb54 fd6e 320 f530 fdfa f9aa ab5 fe96 712 
6cf fbd7 be 17d f8a9 4ee f53e ff64 ffb6 930 
fd28 f59e 740 3a9 f224 feba 314 435 590 498 
d2a f699 101 5ce f8f5 1cc fa8b fcdd fee9 45c 
fbdb f051 fdc8 fca9 fd31 ff3e ff7d 93a 5fb e44 
72d ed 3c a86 ed45 feab e1 5dc f998 dc 
f7f0 1b0 fc44 fa88 182 8d7 ef6a 49c 95d 7d8 
24 f9e3 2e4 112 f74b 10f 8a3 49 12e ff8d 
abf fcc1 f979 8af fb44 fe57 f27a 2e4 bb 6a4 
1e97 f35f fc1c fb3e f3d9 546 148f 2ed f785 ee91 
edf2 1bb3 ee7c fb72 9e5 ffa3 cf3 ed38 40a 4b0 
f818 d2a4 119c 8cb 9d8 1775 ecde 6c0 7f4 fdfe 
f21e a787 a34 ecf5 fae 21ab 1f6e f369 2773 38d 
dec8 febf f649 ffae f73e 2f48 dbb5 ff66 32ac f839 
f44b 0 fff3 fffe fb13 f9bd fab7 ffc5 1c99 ffe3 
0 0 0 0 0 0 0 0 0 0 
ffc7 f34f feac 251a fd83 ff9b 0 1834 f620 ddb4 
ffee f93d efcb fdca 89d 2ff fffa 15a3 fbf5 fc14 
fde4 e8cb 2a44 195a ecd1 e578 db60 3819 f20b fde8 
ed6 2d73 147e 9a f2f4 de58 ff5c 6b7 782 cfbd 
19ac e5ec 13ce 15be 628 ed 34ab f0c5 bb3 9ea1 
1609 f66d dd6 81d ff33 f52b c28d 1c8d fe4a bd5 
e859 1241 ec64 f8b7 1110 fe91 1746 f60 f128 f8dd 
fcb2 e0dc 1173 ead f38b 1555 ff27 eb36 150b fa0c 
b06 fd1 f6e0 fd92 164 fa93 f70d 683 fc12 fb1f 
3fc f75e fdb1 ff74 fb12 63c fd73 638 b0 1d8 
15c8 ee90 9f9 fdcd 3c3 fbaa f93f ff1a fa45 1d8 
f674 c57 f754 436 f8ef 607 f9b5 73b fcd3 4f2 
461 f0ef 9b2 fcca fb56 fa27 f694 b01 306 a1c 
6b7 296 fee4 77b f87b 414 4a7 f6bc f8e5 ff7e 
fbab f070 fe94 450 fa9d fb9e 36b 31e 909 b34 
f02e 8ec feb0 fe5b fd53 1f2 f258 d56 ffa3 b48 
fd7 faa2 f79c 3a8 11d ffa3 f327 6ff fb7d 3e1 
752 fc6b 3f4 fccf f797 739 f698 132 6b9 fe2c 
50c f648 fe8e 76 8a4 fde0 fe46 140 fd9e 201 
fd9a 92d f87f b2 fd6d fe27 f17d 1055 fc1c 687 
f7d7 120d ff73 eedb 6cb ff98 f2dc 4fb 6b5 2de 
df93 f331 15bb fe1d e80 b0e f710 fb71 8d1 484 
1a79 f3e6 d743 952 a61 be5 ebe2 f18 8a9 f723 
f8d4 ed66 f2ad f8f7 6ce 879 2069 ff6e fc26 2e0 
fc6 e6e4 289b db8f f2c6 1a16 c2 fc0e 316 f869 
d0f3 2e ecfd ffa5 2f4f acb f69a feb4 1aa8 f82f 
fef8 ffc2 ffcd ffe2 f421 104b f8cf ff9d 546 ff7e 
2972 0 fee0 0 fa82 0 0 e683 ffd3 f6d8 
ff4c f59a 893 ff79 ea30 ffa9 fffb 2f42 f871 f188 
ff92 fff9 f92e f30d 2b44 fb5a ffdc f8f7 f948 fb85 
1216 f025 fde8 d4c 4aba e611 e290 1e75 66 c05b 
f19c 2fab feec fb21 15f6 dbc1 d3f4 374 66b 1521 
e765 dc9 f9dc f41f 143f 6c2 ea39 579 f90a 191a 
d2f c6d7 30b 62e 3db 226 1206 f192 1236 6ee 
411 12cb fef2 3e5 f7f8 f668 e835 194c 272 f3f9 
353 f10e ffbc fa05 ff02 154 ffb6 1105 f688 a45 
a26 dd12 fe2b f9ee ace 18b 387 9dc 496 25c 
ed21 563 357 728 fcff 91b f6ce 11a 991 fb68 
fcb7 fd00 fbb3 1d8 ffbe 2b0 fe5a 8c9 ff87 ffa9 
aa3 fe18 f9cc 16f fcc0 fd1c fd43 941 e8 fac3 
f4a7 c0e 556 22c f56d 31b 95 f9be 583 ff6a 
616 fa2e ff06 2bc f76a fd15 f12b cab fe78 d2d 
54f 340 5a7 1ab fd04 f7eb f6a0 847 fb63 e6 
1b5e e71e fd42 87 f205 44d 2f7 204 2b3 1ba 
ff8e 80b 901 3f f772 fcd4 16a fe81 ff1d fbda 
5f2 f5f4 f2fb 676 36a fcdd f17b fe9 ff78 985 
f827 189a a89 7 f30e fe6d f63a fe7d 5b4 f8ca 
e62 ed37 ff69 46d ff39 127a f226 fba8 65e fab4 
339 f984 f6c7 fe8b 6ea fda9 172 384 f9cc a9b 
1cf2 2fd f4e3 aaf e4fb 3f9 f9b3 1d2 3bb f84a 
4c c7f 17d1 ec78 f9bd 338 10d fdaf fdeb f54f 
6bb cecc e701 f417 153b 2f6b e1f3 2f4 231e 2b5 
cf59 d017 e0ee f2ca 3121 20ae fc86 49 1b5f 22da 
d9dc fef0 f035 ff87 f53b 1ceb 1a30 fe1c 164b f6bc 
ff73 ffd5 ffc1 fff9 f880 788 e8a5 ffee 1908 ff5d 
fff5 ffcf fffa fd79 fdaa fff2 fff1 6d7 ffe0 fe89 
ffbb ffd4 ffd4 f83d da2 ffcd fff1 2d9 fe14 fa17 
f86 ff9d bc73 1a64 4cc4 fe63 fc9b f8a1 e3a8 f5fb 
14fa f76f 13c3 1168 c4bb e496 f271 149c 295e f4b1 
150 3e97 422 1fc9 bb4a f69e 3db8 6c5 dbe2 c9e7 
f471 e3fd 1ce8 b71 760 e4d1 ff26 102f a42 f96f 
ead6 eab6 f293 1f8 fed 1465 d7d5 1a68 741 1817 
8d9 1674 af8 f7f5 f841 f405 10ae e8ee fe56 f98f 
f6a9 84b 176 643 fca1 fe2b f4c0 fdc8 d0a fef5 
141 f8e4 105 590 f897 fe61 20d 22d 88 38a 
1106 faab 512 188 fae6 fab4 f8b4 118 fb2c 322 
21c f4d6 3ef f639 fe40 88f fbf5 31b 6a2 264 
ff7c fc55 fc6a fb34 6a 465 f415 14c5 fb97 353 
a2b ffa2 2ac fe24 ff5e ff44 f5aa fc7d 1a3 2f8 
aa4 fed0 f97e fdcf f99d fe4a fd4b ec6 fa8d bc 
efbb 15f9 85b ca7 f74a f5d9 f228 312 fc66 687 
154 d8e 331 3f5 377 f902 f057 290 fe0e fc89 
fdf3 f7ab fab0 3a1 182 fc1c eb33 153a 36d a98 
429 54e 497 ff62 2f 1aa f097 2c9 febb fe9b 
bc8 e86a fc49 608 177 fcc5 8d5 387 fecd 17 
fcce fe27 7e7 6e4 fe69 f876 eb60 9e2 246 7d9 
fffc f52b fbb1 3e9 fbf8 a2e 1733 fb87 634 ec2b 
e001 b55 ad9 4d1 d58 44d d8f6 b39 3c3 b66 
fd2d db51 fd87 c35 fd7 fa2 e91f eea 6cd ff79 
32e3 26ec f4b1 bdb5 ce9f 14b4 795 fcc ff5c f9bb 
c4ae a1d1 11a7 738 172e 4119 f40c fd64 3860 fe8b 
e0d6 ffd2 ad5 fe6e 2cd9 508 e349 1871 1fb e680 
ffaa ffa7 ff4a ffe3 f5a6 f0df fbd7 8152 a02d fdab 
fff3 ffc7 fff9 fbfb fd49 ffef ffee 90a ffdb fe4b 
ffe0 fff3 ffdf f8c3 1c23 ffeb fffd f29e ff09 f9dc 
539c ff9f e5a1 dfd4 fcd5 f8d3 ee69 252b f9ef e429 
16e4 d37e 2556 1e25 f7b0 d3b5 ea8a a90 f4c8 1cdd 
138e f4fb d39c edea 17e8 f2f cd54 cd5 1ce1 17d0 
3927 c61d 107c fe5a e9be 11b0 f2e3 1f5 349 fe57 
eef5 1522 1345 b3 eb11 e9e7 14af fec6 19e fde6 
f34b fc9d e509 ac0 e51 1418 e39a 13de fff7 676 
ed42 2141 587 f8e1 f8c9 521 74d fac5 fb36 f7e2 
6fb f5ec fbc5 f2b6 503 d42 f3bb 844 55a 100 
f401 391 63a f48c fe40 c2e 7d7 f332 a46 fdea 
604 ecb a5 fb3b f9d9 1c fee5 fb04 fd4e fe25 
fa06 fcf0 ffd9 f66e 6f1 9fd ffa5 fbe4 765 feea 
fe43 cfa f9fa 606 f1fa 6b5 fe19 4ff 201 f6fb 
fff9 1228 6f4 145 f397 bc f040 5fe fbfb ff1b 
9ea 99 fa42 fe1c 158 fe56 f78b ea2 f777 ffd0 
5e3 959 2c8 453 f29a fced f517 e85 f8e9 fd9d 
83c a2a 619 2ca 1f7 f4bb 273 f97e f9b9 f859 
b6c f311 4c4 1bd fe1c fe1c f6b0 3a4 508 ff6d 
f682 a91 fdcf 40a 29a f766 e2cf f47 8ae 850 
11e8 dfb8 f5b6 3ea ff18 55f 941 783 8b fef9 
f98a 9f0 762 4a0 fd1a fcde ed4d 43b 251 2b2 
1d9c 1b44 f08b f040 fa86 fc87 fd8b fcf5 fafd f9ce 
aac 1393 f59a e0c e873 fa33 fdd8 faee 8b 223 
fdfb dbb2 e7f2 c471 1e78 5148 2958 de29 ee2 f3cf 
e17d d488 e114 1676 f19 fe1f eb8a 2f61 dc 2972 
e4e8 f2cb 15ef fd31 ba12 3cf4 f700 2e67 1d89 db39 
fffc 787 ffa6 ffe6 fe31 de54 fe47 2825 faa7 fb5c 
ffff fffa 0 ff56 ffb6 ffff ffff 135 fffc ffd1 
19db 35 ffa9 fd3f a53 ffa5 fffd f26d fdf5 eeb2 
ffba 17 f904 c44e 73c fe8b ff96 50d7 fadb f1d0 
2c7 e84a 127a 333e ea7 cf30 e883 3a 1418 f489 
abd8 2213 a49 10aa f814 279d 480 272 fd0f f36f 
e983 d26a 112b b3 d52 f20a 28fe 6ca 80 290 
c38 a873 b8d 10a9 d31 e92 f386 9bc 9ab c6b 
15d1 ca2a d2d ef3e ff67 f9e4 1b62 fdf9 bae 548 
7e1 e2a8 f075 9c edb 6f9 ebef 50 d84 14cd 
ebe4 55 ff32 f655 d19 fc71 342 92d 2d0 576 
ffe1 f0b9 e37a fccb 15c4 fd3e f1a4 17f2 287 1003 
a87 f69c f2af fcaf 163 443 f81a 41a 4c6 8de 
f2d0 fce5 f87a fd05 1248 fcd2 691 f970 104 aae 
7c5 226 eb40 346 e93b e9a 8b7 74e 1b4 fdfe 
f4b6 bc6 f064 443 f291 ff90 122 ada a31 28e 
e289 17a9 f75e 3f6 bc1 fd12 f3ec 653 1bf 5a8 
f030 505 fafb fd24 d84 f955 fbae a90 fd7b 81c 
757 f986 f4e2 2e6 208 fc2c f3c2 cde fcc4 bc4 
f03f 5fb 1aa 54a 25f f9fe f284 1053 fbc5 7d7 
ce0 fb02 82c fe37 fd9f fa80 cae f870 fa7d fa02 
f519 7fa ffb8 210 fcda eb3e f7ac dd1 335 105b 
1ba9 dcba 1155 fcaa f00b fea8 ef5 fbce 4b7 fb73 
fcd4 e66c fa51 14bb 22b d9d8 f5c7 1d0a ced 11f3 
399 26dd efc 10e4 e83f fb61 4d7 f3f3 f738 e209 
13fd c813 f90d b772 df2d 56c9 f5f4 ad9 29b7 12f6 
f3dc 1ec7 1fe3 3121 f5cd 31f9 ddac b225 e9a8 fb1a 
c673 987 1503 fe05 ff01 1765 df73 f5bb 3f48 f222 
ffff 4da e68f ffe9 fefa f9c1 11f9 ffe8 a52 ffc3 
0 0 0 0 0 0 0 3 0 fffd 
10 fffd ff00 fe5d 16c0 ff73 fff9 f844 fe61 f5c7 
ffae 2b fd93 ede0 e45f feb7 ff9e 2318 fc39 12b1 
d71 feec cf92 ffad e81 205 e539 1529 1b56 fe26 
21 3ba5 1e20 152 d53f d67f f4e6 dd9 feed f75f 
1e4e e16f e995 597 d60 3fb e647 4a7 d1f 7ad 
febf 244a e2e8 ed6c 7f7 ad2 f7d2 f613 fe7d d77 
f71f d5f ec16 1f0 7d5 298 fb12 b73 fe96 fdf4 
fb87 82 f332 ecc7 415 fd86 1c6e d01 f718 1db 
bc5 ff3a f19e 268 f698 98 d60 f7e3 10e 378 
f238 3d3 704 ae 313 932 9d1 eff5 a6 fb8f 
1eb f794 f234 fcf7 3c1 57c c7d 510 fbd1 bb 
18a 84 f63f 3f9 1269 72d f95c f664 253 f80f 
573 866 fc7a fdf3 68a 656 ff09 dfac 733 4f1 
fb91 1312 f99a 572 f5f1 fdaf fe1a 33 1bd fea7 
fb0e 84b f74d a8 fc86 3cb f593 a79 136 31e 
f10e f836 fdad 64f 6a4 fa26 fbf4 cf8 fe93 a79 
229 fe7e fb0d fe6b 189 fabb fff6 496 35c 1b5 
ff9c fc49 f214 2c3 4bd fb6a fee1 aa3 fcec 8ae 
f8cd 17d 676 fbde 68d f690 e9d4 8dc 745 c4f 
eb8 fcbb f829 770 12b fd53 f87c 60 fed0 fecb 
fc81 feb2 f244 f2e7 1a1c f049 fd30 2ea 321 1202 
f758 1dc9 a76 f0ac f608 f215 82b fbab 663 fd68 
fdbd f70 dce4 bde0 9d8 f79b 107b 1317 202 3107 
329b e63e 364e c7de 439d 782b 3e78 d571 2b7a edd2 
f83b fe5 26dd 2ce2 cf99 5337 7a7 e0bb dbce bd21 
b584 eeaf 3083 ff0a b284 b910 b1bc edb0 2e94 f2b0 
ffd2 b98 e754 ffe6 f544 ff0a f5c ffd8 9ee ffed 
0 d 0 fffd 0 0 0 fffe fffe fffd 
5b 0 fe1a fee7 76 ffec fff3 985 ffd0 f8fb 
fffa ea01 fd92 f6dc f358 ffa8 ffcf 2bf4 1476 ee60 
1f52 4fb 4ca8 3364 c5fa f80a e64e eefe eeb4 d9a2 
3bb5 1867 8a78 d626 1591 c77 f7ea 14f0 ef3c 2d26 
e36c d8d2 fed7 1592 fa25 2282 29dd ef25 f6cf 2e3 
ad9 1eee fad1 f062 fa27 e6db c7d 13b8 f3a5 f62c 
a5b 111a df74 f3e3 119 62e 10f f7a2 7a9 991 
ff24 f268 31e 603 9e1 ffc7 f422 fe8f 352 5a7 
f0 1825 f9e7 fae8 aba fe41 f2e3 fc7b fea2 fb22 
9ca dbaf f3d9 fd97 1518 40b 13c 987 fb21 a0f 
255 fbd0 386 fd7b 509 95 f6ea 1b9 2fb ff9d 
fb68 46 fcc0 123 110b aa2 563 e735 367 fac2 
e2e2 7a5 597 94a f762 8d3 9d9 f03a b30 11d 
f7da a00 ffec 74e fd8e fd15 f68a fe72 fe30 91e 
ebd5 57e f7af f9c0 c7c fc45 771 3fd 731 1dc 
f68a c02 fbd6 149 511 f500 f66b 6fa 5a 884 
f9dc 10f3 3a9 fe2e fe06 fd58 8a fbcf fb89 1b 
766 ed39 ff25 611 5ad ff89 f9fe fdc3 418 51c 
59b eb78 9b ff7f fef8 68e a86 f4ca 244 7b7 
eca3 616 fe90 f824 864 fd9a 48 fe0d ab0 791 
f3e7 14d3 b23 ebff 20b f372 6d8 87f f88a 2c5 
19d6 c7e1 a89 efc7 2a0 fc20 11f2 fd03 13ca 278 
1a65 d163 fe05 7f4 39b ecfd 29a7 ea10 10ca f928 
139 ea11 1c2a 1a1e d54e f173 dec0 37a0 8a9 f8a3 
2bef 51a f728 d1d 1bcb 9996 368 2921 f9f3 eed4 
e1bb f361 219f ff1a 1c85 b3a ff7b ed35 fbf3 f9ca 
fe48 fffc 6893 fee3 d294 fa63 d214 fe92 fcef ffbd 
0 0 ffde f924 ffeb 19d8 ff97 ffd3 fc05 f1d0 
ffff 0 fc21 735 fd42 fbaa 0 884 ffb7 fb86 
ffeb bf fc22 f80a f073 4b2 fffe 1ea6 ff43 f820 
b925 f47 12ef dd98 191e 32c5 f53c ef5e fef5 179b 
dca0 2527 89d f677 2562 eab6 f417 177d d735 c45 
18cf 1174 d1bc d35f 137e e373 1146 1aff 103f fd2d 
8f4 e818 f284 fb97 a76 358 120 f931 a7f e3b 
18ba cc87 12e1 fcff 11b6 1db 367 159 ef99 2f3 
64 1420 f14a fc95 8c fc9c 5c5 33b f768 d 
1223 e600 f812 fe4a 4be 4f4 f2d fc0c fa5d 238 
e7c5 3f2 89b 1d0 fc1c 9a6 ca6 f6f2 289 fdfa 
f6b ec40 f72f fabf a2c fe03 bf8 fe5a 150 fe97 
c02 b5 125 35f 924 254 a2 df9c 55d fdae 
7fe fd97 fee2 2fe f9fa ff1b f896 b8 1e2 447 
d3d1 1592 a01 fb33 85f 71 4fe fe5e 588 ffb4 
e75 98e fb46 444 fa2f fdda f6e1 f3eb 23 57a 
da2f 63f ffe3 4 a40 fd18 c1f 632 26c 394 
860 ef4e f63b 1a4 f50 f9ce eefe a37 2b9 b66 
fa39 f1e9 585 22f 396 fa36 38a 87e fc1f 635 
f9b1 46c f792 f738 edb f5c7 fbae 1590 fdf7 ff44 
e40 1336 ff06 f6af feb0 fe2b efef a87 f2da feab 
189 f46b edc5 4c6 6ad 345 45c ff56 3f7 5e5 
391 fec5 f9db f3e9 1b1 1a4e 42b fc3e eeba 4c3 
fbf8 f7bd 718 120b f312 f928 fbf1 229a f8df ef86 
443 1be4 fabb 9b2 ff4c 2f57 2a83 bd42 ee46 d6be 
de9c e9de 1418 dba2 3b0e b500 1872 ef35 365d 19bb 
f7a3 fd66 4dc5 fc76 9e07 f7d5 2160 f568 7e7 c33 
ffdb ffff dc1 ff3f fb09 ffd8 fa01 fffc fe4c ffff 
0 0 fff5 fdc1 fff9 876 ffde fff2 feb3 fb5b 
0 0 f9d2 1056 14 f640 0 fffd ff89 0 
ffc5 4a9 f86b e06f 19d5 2c8d ffff fda7 ff1f df92 
e811 f52 e88c f3da 12cc c972 ee0c 505b fbfd 1598 
1577 80 1756 17e2 ef72 30ed c52b da3a cfe ee0d 
4a c5d2 2e8e 27c4 fded d04 e51e fff7 e444 f48 
f1e3 e06d b1c 4f5 cd0 cb3 c6c fdf2 f7ce 1ee 
40c 1e1a f495 ef26 18c f20c 411 2f4 fee3 9d 
ff88 1277 79e fb12 26d fd7b 161 f141 fc50 fc78 
57c e7d2 576 fd96 8de 56e fde6 fd4a 4d4 156 
16b9 e9d0 f87e f9b2 a9d bb 786 2c5 f7e9 ffba 
ecb3 499 5ca 72 575 55 fd2a fc79 29d 66c 
5a6 fa fe1c 172 38f 78b 9bf e9bd 343 f7f5 
10c 1234 81 fd0e f7e5 fc92 17 f9f8 21d fe90 
e276 127c 8 8ed ff0d 3a4 825 f42f 97b f999 
efda f8cf ff91 fe96 e24 f1e1 fd4c 1242 fea8 af9 
fa5a 101b 150 ff24 86f ff13 fc95 f406 fbbd 13d 
f9cd 6f8 ff8d fa73 616 f805 fec9 ca6 f6c0 4f2 
f62b 19fe f2f7 f7ea fb74 6ca fdcb 83c 1e2 facf 
3c4 adbb d66 94f b08 73f 8db 382 b0d e16 
67f d6c4 fb57 1050 fe9b 5e7 e62 12 fead 572 
eda e7c4 a96 5a6 ef93 5bc 3bf 819 fd7e fa81 
fb16 b97 ea9f 8 238f d9f0 f6f4 1b37 f5fe 904 
963 eb34 f9e8 a59 1e0 566 42f c0a f1f7 fdb1 
45f9 fe6b 2019 ea5d c70d 3c04 f954 fa64 fda4 bcba 
536 f637 f34 cfa3 f3cf 1d53 85f ef48 1550 7a2 
ede1 fd16 fc31 1c82 564f e15d cc69 8ba dd74 1215 
ff3f ffd0 1cc6 fff6 ee75 fa84 fd1b ffec fed2 ff68 
0 0 0 0 0 0 0 0 0 0 
4 4 fd18 7bd 0 fb63 0 ffff ffc5 fffd 
feda 3d2 f0ec 4a8 a4a ffba 0 ee0d fd04 12ac 
f1ee ffc3 2438 29ac 103d fe3f e878 bed1 226c e83b 
fcdf fe03 f63a 35c f267 d9cc 2dee 22eb d394 1ae9 
1061 898 39f f5fd f7d9 886 fc2b ef16 be9 f5e3 
139 cb 103 f144 fe7b f2cf 7ce 68e 87b 392 
919 d9cc 9b0 71c 93c f79c edc 32c fbc9 fda4 
900 e3dc f4fd ee68 ef5 1d4 5c5 a77 225 c92 
17e 1dd5 3d8 15d fe84 f22d 6ec f26f fc3c f530 
fd7d f6b0 5e6 fc8a fd68 ec 457 fea3 58c 289 
18df 45b 48c ff31 fcea fb9d 107a dcde fe8f fa9a 
f4c0 f3de 3a3 fa5d 7d3 ff28 41c 639 607 20b 
e06c fc6a c1c bcd fe72 352 19c 34b 467 2d 
f56d f38 6f4 1d2 8c6 f797 fd58 f523 15b fe62 
ef6 f321 fafd fbb8 620 eb 27e f6 ffea fccb 
ea22 6a6 fbbb fdc4 92d fbb8 19c 429 54f 5c0 
5dd dd3b f4a ffd2 54c 84 f675 640 53e 606 
fdbb d5d8 2b2 9e6 ae8 fe21 c79 537 fcfd 81e 
a1f e613 61c 1de b41 1fe faa0 1046 f24b fd63 
f533 2a1d efce 34 623 fdd5 f3e7 1de f49b 257 
fa77 aa8 a53 fb65 e5e f657 968 fe0f f749 f1b4 
35a de9b c35 117e e5ea 22ec 198 d f359 284 
fd77 e657 c0 f7d2 e96 5a f ee1f 1123 155c 
dd68 60d6 fce6 3f88 e969 d648 f763 a6e ee62 d573 
6b7 aa6e 4281 cbec 676 1ac1 3570 f45e b52 ea14 
de15 f9ab 512a fd21 2541 daae f704 eceb f156 4c3 
846 ff7c 19ad ffe8 fc5b fb3c f7e9 f0be fed7 ff98 
0 0 0 0 0 0 0 0 0 0 
ffff 29 fe43 4ca 0 fdf7 0 3 ffa9 ff29 
fd72 10 f755 10cf 123f f589 ffff eae0 fd88 a2b 
fbf0 feb5 11ac f3de cc9d 31f3 fe80 6fe 2e0 f8e3 
f54 885 64e 197d 527 ebd 9cc9 5c7 2f7d e267 
1b7 195b fd57 fdad f1ea fcb5 2c0e efd8 da19 54d 
1009 1873 6be feb1 f52f feb f3c1 1c f8f7 e025 
60f 1090 ff3f 6db 6a0 f7e7 ebb4 ef0c 3fb 604 
f7f9 276 ffe3 f69a 11d f65d 10ff 11e fe4d 730 
c11 e999 6d3 f8ff 4d9 f85c e3e fd30 5a2 fc3e 
29d 4bf 1c2 f6b8 21 c6 664 f59c fd01 640 
f8f5 ff3b 494 fbca 435 f87c 12a1 fab1 46b f903 
642 bb9 1b1 ff76 f997 f4b5 fd05 aa ffa6 13d 
ed4f 1545 7d7 fdbe 49f f509 fb54 f96d 636 338 
f5d1 90a fb16 f3f1 64c fc10 eca 697 fe81 fbe1 
ed4d 3c9 93b fb68 f4e 22f f339 227 fb2f 83c 
27e 391 288 f8f7 59d fe44 fe24 fcf9 126 fe4e 
f55 df2d f79f 4ef 455 3ec 9e0 601 fc51 7b 
f900 abb ffa3 ff58 21d 761 fc99 fb08 fbe3 49 
f6da 1192 f924 753 ecb5 ff36 c25 114 14 fde5 
db6 f3d0 fff8 f812 11e ff1d 719 a99 fed8 f5ab 
48e f69c ff80 60d fea5 515 fa33 f81e fd98 ba8 
1d7 2100 f9ef f39c 12b9 e7dd 255 ff81 374 efbe 
f50d 210a 1f4 d6d f546 f333 12f9 f679 f788 f117 
10c2 e0ae 140 e889 e127 2997 192 2c6 2442 f16e 
47e5 d94a 28b9 c27b ea94 f8b3 283 1832 dbd7 19c9 
f624 168b 1165 fdec e8cf f7fb f92b 1ad2 f0b0 fe8a 
500f fdda 39c8 fff3 b094 ff0b f412 d9b5 fe07 fcf2 
fff5 fff7 fffb fe73 df26 ffde 0 2062 ffa7 29b 
fff8 20 1648 a7 ffc1 ff56 0 ec33 ffe8 fdc9 
fe44 fff9 f77e 1bdc 1930 a46 ffff df8b fa4e f11e 
bbe fd77 b4f 1ec1 ecf4 f2ea 2afc 14cc b417 f8fe 
17d5 f6b3 b81 5ee f8e2 fec 92d dd65 f36d fd3e 
f78a b32a 1672 894 10b6 692 e626 2d24 11c3 f9f0 
fcac aecd 11d8 17d2 835 1566 861 e027 c6f 1849 
f87a dc35 afc eff9 883 fecd 214d 13b7 fb9f f86a 
1591 fef7 73d e29 f29c 9ed f206 e875 ae1 f42d 
a08 9d1 fd42 f1d4 d34 f6bb 1d9 fdba 79 f916 
7f5 e9c8 ad0 fa16 f1f4 fdb2 c20 f94e 98b abc 
354 fa37 405 f9c1 1b0 c7 f776 fc23 564 939 
fb0e fd13 b43 f2fd 58e ffd0 14df f908 2a7 f3b2 
ef80 f684 19 f8c7 e85 4ff e05 594 fe6f fb8f 
ef8a f0e 86a fd20 fdd6 22 fa3c ff59 feac 5a7 
7c9 5fb f733 1a f814 fcd4 4d8 1 19a ff93 
eec4 df1c 5e7 cdc ce3 46f 314 87d fc83 5f5 
fdeb f99 fe95 2ea fab5 8a9 ff8f f3d1 fc78 fdca 
fab3 cf7 297 fa75 18 f2b1 102 1285 f5e5 ff15 
4dd e00e bff c4e 399 b8f fcbf f5ca 475 fca1 
edf9 e23 620 3f1 e15 fb55 20 f513 fdf6 fd3f 
fb95 2d8 275 62d f6e1 1a4 3a2 fb7b 24f ff00 
150 e948 5e9 121e e4b9 112b f55f f20 f779 b86 
1b26 ded2 cc8 73f e2f 17da ff86 fa73 fdc6 d437 
f059 390d 27ad f71d 1ce eee8 12c5 d41c f97a e6c0 
d22e 3406 1598 dff8 de1c ce95 1682 1550 1621 1597 
f336 e57 dcff fc1b fe94 fa3e dbf4 6138 f00c ff52 
f7a8 6b5 1661 fde7 fff0 fe4e f4d2 ffcf fabb ffc4 
0 22 ffe9 ffff 0 0 0 0 fff6 0 
1c7 bd 2c9b 1a e000 feac ffd7 eb9 ff55 e437 
fe9c 33 3a e194 d02 dab ffd7 1918 fcf6 eed1 
da0a eada ed7a a9f 3b04 ff84 e4e3 80d f736 2455 
e1cd f0b8 f936 fe8f c3b 10cd d90 2f9b f759 e42a 
1a6 9a05 d33 132e 1860 c6b f97 f494 103e abc 
e86 176f f272 f870 ec8f 94 fe40 14bd f2b5 fc55 
b50 1c99 38e 48d f501 3b3 eb93 e37a 21c 61c 
f6ec f028 fb21 f34a 1165 1eb aac 765 f872 cae 
fef6 642 753 334 f0c9 1d2 994 f8d3 4c1 f67d 
fd4 fdd5 531 16a f54e 61b 58e e9ac 454 fcc6 
c6 f537 200 f88a bf4 fbcf 167f 1a8 fc6f f31f 
c8e fd59 327 fe60 ea39 350 44d ffb4 1e5 122 
fc66 105a 854 fcca fd5d ff0c 5d f514 5 fc44 
2ea ea51 fef2 fff7 1194 fbf3 dab fff5 f97c ff3b 
f701 f42c a8b 1b9 3d3 a91 bd5 f581 febc fa19 
bfc 127f 1f4 4 f5c2 fb05 fe5f f052 1e2 fe33 
fdff fa06 ae6 81e fb8b fbbf 6d4 fe17 265 f65f 
a6d e1fb 2e6 909 fb8a e0a 739 eba8 a2d 106 
f1aa 1e03 f4d7 fd43 ff90 f0db fc1f 145b fc6d ea 
fe92 b41 fb41 f73d ed1b 5d1 fda7 16fd f9b7 269 
400 e38f faf4 fe2f 25bd 69e fdd1 f94d f807 3cd 
110c 1e6e 1492 4d5 c221 fd51 17f5 fd6c 12a7 cfa4 
ed69 764 5d0 450 ffb8 ce5 ba2 b4f7 1628 1db4 
122c 9de e965 f419 d29 1aca eaf6 216d e981 e8a0 
d969 72 4bf5 e5f7 eafa 1810 1441 d9a7 be7 f760 
fda5 2040 308f fe4d fff3 d45e eda7 ff8b f372 fe4d 
fff3 339 166 ff14 0 ffcd fe83 fffa fe24 ffee 
0 0 0 0 0 0 0 0 0 0 
4a3 fffd 539 2d5 ffe1 fc72 ff9a fa91 ff32 fda3 
f026 fd27 ee63 fbf 401 2a2e ffb7 fef3 f522 f297 
f02c d7d8 242e 110e f558 c9f f1cf 1981 fb f47d 
2b08 1762 1675 161b fef 82 dee6 c063 37d ddcc 
26e0 c27c 1902 1480 bb95 15c7 d43 ebad c8f 1243 
f541 feee 764 ad6 17ae 359 f0bf ffa8 47d e9ad 
fdc8 ef54 b92 8c 1141 f78a 232e deea 448 f79b 
a87 27e a89 a6e d84a 9f9 f0ec e21 757 f55c 
ff72 d2f 7a8 626 932 32a 1ff ecf6 fb91 eeaf 
967 a45 3d6 fb5d e7ab fe1a 1383 fc9a 1fe f540 
fd8c 9a7 c72 4fc fecd 62a fc45 f500 fd36 f3ef 
95c 67c 81 ef6f ff02 fced ecd 72d fcb3 f19d 
3f7 f0d3 4a5 70a f3e1 628 69b 6e 1e6 fc8c 
2d9 d5c fd7f fe07 fd1d fde3 807 ffea f883 f8d3 
f9fd 48b 71 ffaf ff31 fac8 623 ff30 458 fdb6 
eae3 ffa7 153 20a ebd 612 4be ff63 f88d 9c 
6c4 490 fc21 57 7b8 2be ff40 ed3a b5 8c 
848 1fae e5 124 fae3 fc52 8da e545 f71c f992 
fd18 f4cd ee2 85a edfd 1309 fefb e9e3 b50 1ac 
117e c96 a6e 13a4 f371 fd33 10a5 cba8 6e2 f004 
fcf7 ee5c 1315 9b2 fcc7 fa52 f90 b9a e10 d793 
127 c0f 636 fa6d dbc 885 e1e6 de63 ffc4 1bd9 
f968 f60b f15f 5a3 210 ffad 9f5 1d3d 6c f031 
ffd4 8a7 e3c fc4b f9ca ccb3 f996 d01 7 1fe4 
ea24 11d2 6c8 ec12 cd7c 54c8 1693 dc38 ec8b f96 
cad 2cbd fb48 33d ffb2 cdec 148d ffe4 ee0b f7f8 
0 44 ffd1 fffd ffe4 b7 0 0 ff54 0 
0 6b ffc6 ffec 0 0 0 0 ffe5 0 
0 1d 8c 2df 0 fdbd fffb ffa5 ffd6 ff47 
df0f fcbf 2d76 121f f870 1a6f fe84 eef1 f43d f00d 
247b 5e24 fd35 1581 fb57 fe49 f971 483 c92b a9ed 
7b6 10a8 f6a2 280 2b9 15c8 e104 f3e1 c9b f47e 
ea70 fe9c f391 f307 28f4 11a e566 2105 f504 ae0 
73e f30 388 ff26 f9e8 1d8 fe8d d002 5af 16e5 
7f2 2aa1 4ec b9f d91d 79f ecea e87b 809 feb7 
fe42 299 f203 fb0c 12fb 215 638 350 f798 fbe7 
fa23 f648 429 fb02 fdac 162 7a5 f877 5d7 b68 
5db bb7 fc65 fe01 ff09 98 b fc9e fac0 fcfe 
b02 f693 394 fbe8 ffe3 202 5ff fb34 256 f982 
864 fa93 fb40 540 f7fd 233 b83 fce7 fdb9 fc35 
f8fb fa4 5f5 fac5 fcc3 be 966 f847 2de f49b 
f990 fdfd 37c 69b f74d 7a4 12b7 f2df 455 f581 
fcb fb1f fd88 ff0c 3ad 334 71c f924 fc0a f557 
ff7b a21 1e4 6d7 efff fd3b 7ef fb81 142 fbbd 
edfd 428 d7f ff87 fcaf 649 24b ffe7 777 f433 
f3ce aaa f82d 317 703 fe03 8fd 1bc fd9c f8e7 
fcc8 74b 11f6 65b d8a fb68 f940 e97f fe9b f952 
e6d7 ff45 f6a0 f505 c6c b71 728 fb9c 5f5 da9 
fedd 280c 1bc f84d e878 c36 e35c f2f3 f7fc 1c16 
52f dc47 fa4f a0b f5ae 766 1f3e 564 410 f469 
eb6b e214 3787 3b9 d6f 101b f8b9 eba6 15f5 df62 
f44f 4f8a e6c0 cc88 f42e 6e8 1582 f137 e1ca 2546 
2ad 3d36 2f94 f967 d986 1763 23 ef92 f10b c57a 
659f 4ae f65c 129 f711 d28c 28e0 f2fd f3d6 c4de 
2 0 ffff 0 0 0 0 0 ffff 0 
0 67 ffc8 ffed 0 0 0 0 ffe6 0 
0 21 ffec 33 0 ffc9 0 0 fff8 0 
fb11 fed3 db1 fb66 fffe 1df8 fffc eeec fa7d f5ac 
ee63 1a84 11d6 2f1 fbb7 ff3d fe6f cf6f 2005 f97c 
e0be f967 e26 c35 e164 ce6 f74d d358 fb76 571c 
efa1 38cd f0 f95f debc e94f 1e1a dc8 fe34 eb24 
f92 35e 1259 f44 fe01 fe64 bdd5 198c 59c f211 
fc8e eca0 fc30 ff0d fbf4 4a5 2556 fe84 fe89 f89c 
f879 2cc d5a c7 f1f9 fa15 fb88 ba8 fd12 64b 
f15 d72 9a6 2cc f10d 4c9 fe9f f066 326 ef06 
fef7 f3d5 221 fc5f f5f7 fa3a e47 ac9 fb90 9e4 
64c ffd0 2c5 25f fd1c 704 fd8e f096 368 ff14 
ee35 fa70 423 2c0 25 2b2 213 648 1b0 392 
2850 e4b1 fe88 f8ca f516 be 108f fb25 ff58 fad0 
f09a 626 fe75 fd22 fcca 3c6 f663 9f0 410 8b6 
fbae ff68 1e 3c0 f6a0 445 1081 f911 487 f80d 
15fa ff2a 241 feca fa5b 414 fc40 fbe3 f98a f9b6 
f29b f84d fbda 89e 6d8 19f 1001 f80d ff68 b1 
fe53 12f7 a62 fe78 eab6 70f ff1c fb4c 2b8 f6f9 
7e0 f9a0 fa52 fe30 bb2 cc 438 85a f8dd f413 
7b1 1c15 1035 13c1 d8a2 2ba f6d6 f798 2a5 ebd3 
eb20 1926 f952 eef3 17a4 f857 1ccf f511 379 ee23 
24d1 e444 1489 10d0 1053 453 ef86 e25a f83f f2cc 
226d 181d ed48 4ae 1753 1e04 d5e7 a447 5e4 1e15 
d127 16e5 3dec e212 528 e1c2 ce2e ea40 1a93 3e0b 
f3f0 3820 d488 f913 f452 583 fd95 f68c fa21 1e40 
1546 230 b3e1 140 5f4 30cc 13ae fd16 f874 f371 
5 0 ffff 0 0 0 0 0 fffe 0 
0 0 0 0 0 0 0 0 0 0 
0 0 0 0 0 0 0 0 0 0 
fff4 fffd 294 36f4 73 435 0 e925 fe5a da61 
f87a d291 5d5 1dd3 ffc6 f957 fffb e164 f9f4 3cdf 
df9e d256 e2d 1cee da49 242f ff6b 370b 247a c989 
2752 2065 12f0 1187 e576 e0f fba8 bd02 1ac e5f6 
f945 f2e6 fa99 7d 166b cca e869 1088 f849 452 
77e 134e 861 d1a 3d9 f938 d2c0 6a7 ff86 f9b9 
214 fba3 811 1e1 62a b93 f5cb e307 8a5 521 
8a0 fe0f fd18 ffc2 fd1a fe7e c5e 2b fc45 f814 
fb08 58 1e2 56a 963 b5a f752 f104 40a fc35 
1055 ff55 8c1 981 fe1b cb eba7 f62a d7 fc86 
a4 ffae 210 f7b8 fb64 3bd 1437 f389 29a fc6c 
10e a6c fd76 c7f fd6e 256 f302 f519 6a4 fc0d 
9cd f4eb 5a3 f97b ffc9 81b bbe f331 fd33 fe25 
2e c0f f71a 235 de fac1 fbfa 42 5e1 fcb9 
fc08 e2 98e fbe7 24d 4fd fb91 f724 5a4 fdfe 
100f 1066 f669 fe6c fffb fe54 eba0 63 fe45 220 
ed43 eefb 1162 72d 86e f7c7 13eb f2ee 5dd fe48 
fd95 446 fe2a fc21 fb32 5b7 d31 eb4b 837 23e 
f3b6 e877 f74 634 1137 711 13ae d92c fdcc b3d 
bb 1d31 2a2 feda 19ac 557 e581 c59c a51 c25 
13b1 1180 a0 d966 b792 f515 4d5 3504 f988 20c0 
12 ca94 3082 9fc 17a 136f ee4d fef0 1e00 dab6 
d3b8 f45f ef9a 9b3 130d 2139 e368 f512 121e 1fbe 
f49b 46b 333b e38d 69d 3c70 fd79 f7c6 f048 c79f 
ff86 1314 d95e 14e8 6d6 2aaf ffee fde1 e932 e69a 
0 0 0 0 0 0 0 0 0 0 
0 0 0 0 0 0 0 0 0 0 
0 0 0 0 0 0 0 0 0 0 
ffd6 0 ff9c d5e fffe ffe6 0 fa6c ffd4 f911 
feae e6b3 c9e5 2a51 ffe6 24a5 0 122f dda6 120a 
2a87 d4bb 362 26e8 de0b e56 ffeb ddea fd21 f1d 
15bb d78e d85a dfde 2f3e f62d fee2 3994 df85 1d1b 
cc5a f9db 1310 1cf2 33e 39e fdf7 1d9 166 1b4 
ffc8 f7d ec47 155 4e8 fb30 f0af 119a fc27 497 
d8e f189 988 4a9 ff9f 393 de8c a8e 4bd 1ad 
ff4c 1235 65 4b5 57a b0c d633 fdd6 591 ff44 
d93 fc76 2a2 9fd f8b2 336 ddfe ab1 ff2a 595 
e899 a64 5de d5d 12be b8b b754 ca6 10c9 6b8 
31ad f749 8f7 fe6f f9e2 ae f14e f08b fe6d f4d0 
e315 fc26 f2bc 8cf 493 5bf 443 cd4 719 2b5 
841 fb62 158f a9e fda0 bc1 d66a fdb4 9b4 f4fd 
1266 7d7 fc32 fed0 fa1c 7b3 ee0e fbfd febe 2a 
e1bb e21a fed6 af2 1d5 845 1df2 fcb6 1064 fd3e 
d2f 1add 2c7 faa5 f3ba fd8c 920 f96c efcf f6e9 
2121 ed0d 2b9 9a2 f934 88d f54d edb1 4cd fbea 
b146 31ff fc3 fcac 1481 414 c630 166c fa1 b77 
118b f1b2 f10f fac5 ee7e f50e 1350 1a91 fda3 1e1 
d107 f7a0 31e1 1e65 b74 b18 e3ec fb50 4e3 ec68 
df42 bf44 638 2389 2cc2 19c5 f7e7 cc8d 12f3 19ca 
f45c f79e f4a1 16ed 1b37 bed4 fdfa d5d5 d7e 4d21 
fd43 fea9 495d ea0b daf8 1e7e ffed fe64 d4a6 441 
2 256e 12ff fe56 1d88 c381 fffe fd13 ea0b 117 
0 684 1293 ffbf fffd fac9 0 0 fdca ee9c 
0 0 0 0 0 0 0 0 0 0 
0 0 0 0 0 0 0 0 0 0 
0 0 0 0 0 0 0 0 0 0 
0 0 ffff a8 ffee ffff 0 fead ff35 18b 
fed7 fe35 f9cb d2b2 0 201d 0 2522 f7f9 f943 
f949 fbe6 f157 d6c2 f990 2517 fffa 2dcf 120d e43d 
ecc1 faa4 c6dc 3003 d903 f7a7 ffe3 1bd9 f73f 3e18 
d43d 16a3 306d fe1d 879 fdda ffcc edab 748 eb87 
56f b1fb ee72 1732 fcc9 24d5 ff6e fa0 40f e35 
16c9 7b9 f0d6 1e27 f14d ece1 fd29 fa3a f49e 854 
ed0 eb22 ca5e 122d cd 2131 fb13 ac9 35b fe4d 
c563 d19c 1937 19cd d46 353 fc2b 78e d3a 146f 
1fba d63d dd72 3a8 feb8 f9a 7e0 8ef 409 5c3 
bf2f b72 11e5 e52 ebc8 3f0 2659 53d faf3 fee5 
2dc2 e93f 5a8 a48 ff0d e2f d2d6 fbbe fc47 f8 
d7a0 2b0 f609 7aa 7ae 20 eb6c 1375 b82 15c9 
d2be ee17 225b a8c 4f4 13db e6a9 595 b1e 217 
b86 cf42 f43f d67 737 a1d e21c ef2 c8d 14a1 
caa8 d318 2a28 ec8 fe93 1966 efe0 a29 ed3 879 
846c d8ac 14d 110d 2121 1efe f39a 1d36 1d71 222b 
d42d d633 17ac 2df5 eb78 2834 fbcf f1c7 8b4 60a 
e379 ef93 15f6 e9e7 13d8 f829 fe8a 161 114d fdd 
e903 fcc7 c0e1 d57a 476 154a ffa5 1c41 ed3 3f63 
ebbf fd21 e132 26a3 dff0 48e4 ff8e 2cb6 d57a e4b9 
fefa f016 fdb4 ec61 30f0 2b11 ffd1 e292 d7f9 1080 
ff89 fcf7 f836 fde1 d883 5d8b fffc ffc8 ee7b e921 
0 0 f195 fffa ffa9 fe9d 0 fef3 fe73 12c7 
0 0 13c2 0 fffd 0 0 0 feb7 ed8b 
0 0 0 0 0 0 0 0 0 0 
0 0 0 0 0 0 0 0 0 0 
0 0 0 0 0 0 0 0 0 0 
0 0 0 0 0 0 0 0 0 0 
0 fffc ffff ffbf ffe9 0 0 ffdc ffe0 a4 
0 ff83 ffeb fae2 fc30 ffd8 0 ebd0 fdb4 2027 
feeb ff2b ffae 27e0 f48b ff92 0 f0fb f76b fdde 
f98e fe75 feb6 1c45 eae8 e71f fff5 20c1 ce73 2bd5 
f302 fb83 fd10 2ab6 e02a a26b ffde 2dfa f8c7 4083 
ea67 f2ac fa8b 1675 ed2 e3d3 ffc8 56f 1795 27d 
e968 f66e f288 e841 eb2d f38 ffd2 2337 fb5b 2c99 
f107 fe28 f099 2673 f2d2 fb20 ff34 ddc f79b 72b 
f429 e4da cbc7 fc3 f6c4 1851 fc51 1a67 26b 233a 
e772 c862 edfd dc9 fe59 1e17 fd53 d93 14da 1837 
e9b1 c28e d91b 2220 f7d1 1560 f077 279c ef8 244b 
e563 e619 e500 fb5 ede9 1a7c f649 129a 12ac 1bdb 
e68a af7 e148 2312 eecb 18dd feaa 1fb6 cfed 1430 
ee32 5b9 d5db 115c f66e f0f fece fd4 faeb 15d4 
cde4 fb20 c2c5 24cd f720 2307 ff84 298f e953 22de 
dfdb f30a e2a5 1c3c 32f 8c ff63 250d dfc3 264d 
ff9a f975 fb1c d5a bece a9c ffc8 38e0 e559 1710 
f1be fe74 f1f5 3ed4 a071 25b8 ffea 794 ef7a 21e5 
f1f4 fdc0 e7b0 1120 d8ab 2ef3 fff5 16e fcac 11d0 
f804 fd16 f330 fdff dd24 fa6b fffc 286f ffe7 19d8 
ffa6 fdb9 ffcd feda ab fda6 ffff e7f7 44b 196b 
ffff 0 fff8 0 fe8f fd72 0 ffc8 0 442 
0 0 0 0 0 0 0 0 0 0 
0 0 0 0 0 0 0 0 0 0 
0 0 0 0 0 0 0 0 0 0 
0 0 0 0 0 0 0 0 0 0 
0 0 0 0 0 0 0 0 0 0 
0 0 0 0 0 0 0 0 0 0 
0 0 0 0 0 0 0 0 0 0 
0 0 0 0 0 0 0 3 0 fffd 
0 0 0 0 0 0 0 5ea 0 fa17 
fffd 0 0 ff5d fb70 0 0 601 fff5 ff42 
fff7 0 0 f8af e601 fff8 0 5fc ffae 1bb8 
fff6 ff42 fffd 2888 e65c ffea 0 c52 fd5b e856 
fff0 fd6d fff8 367f f77b ffda 0 df3d fbd4 f9ca 
ffba fd9f fe28 fe90 ed90 5bb fffd 1dc7 f473 6f 
ffa2 fde0 fdf6 efdd faae d6c fffe ab5 fd5c 484 
ffa3 fd92 ffb5 2c9e ea92 e37 fffb f289 f448 f6e5 
ffe5 ff90 ffe0 e882 d76b 117c ffff 2c94 f920 991 
ffe6 feee fff3 fb98 c9a0 3c9 ffff 1e02 fd02 1d36 
ffa7 ffe1 ffe8 fc22 e3fa fdf2 ffe2 18b1 ff73 a7f 
ffd7 ffea fff1 f4ca ef4d feda ffee 136c ffc1 a45 
ffec fe14 ffe8 f909 fba3 fefa fffd 2c55 ffc6 e25e 
ffeb f9d0 ffe2 efb2 fb5a fe56 fff9 f1f2 ff59 2bc2 
ffff ffec ffea f5fb f7bb f92a 0 36dd fefd e375 
ffff ffff f7e2 fd08 fcb0 f1c1 0 f888 feee 2534 
fd30 0 f9c4 ff0d e990 eb9f fffc 6a53 fe7e cc06 
f6f5 0 ef9d fd62 f038 f268 fffc 2f5f fd09 d0b 
fdf0 0 ffc7 0 ff91 fe6a 0 e1b ff66 f6d1 
0 0 0 0 0 0 0 0 0 0 
0 0 0 0 0 0 0 0 0 0 
0 0 0 0 0 0 0 0 0 0 
0 0 0 0 0 0 0 0 0 0 
